WIDTH=16;
DEPTH=256;
ADDRESS_RADIX=UNS;
DATA_RADIX=HEX;
CONTENT BEGIN
    0   : 0000;
    1 : 00bc;
    2 : 0000;
    3 : 00bc;
    4   : 0000;
    5 : 00bc;
    6 : 0000;
    7 : 00bc;
    8   : 0000;
    9 : 00bc;
    10 : 0000;
    11 : 00bc;
    12   : 0000;
    13 : 00bc;
    14 : 0000;
    15 : 00bc;
    16   : 0000;
    17 : 00bc;
    18 : 0000;
    19 : 00bc;
    20   : 0000;
    21 : 00bc;
    22 : 0000;
    23 : 00bc;
    24   : 0000;
    25 : 00bc;
    26 : 0000;
    27 : 00bc;
    28   : 0000;
    29 : 00bc;
    30 : 0000;
    31 : 00bc;
    32   : 0000;
    33 : 00bc;
    34 : 0000;
    35 : 00bc;
    36   : 0000;
    37 : 00bc;
    38 : 0000;
    39 : 00bc;
    40   : 0000;
    41 : 00bc;
    42 : 0000;
    43 : 00bc;
    44   : 0000;
    45 : 00bc;
    46 : 0000;
    47 : 00bc;
    48   : 0000;
    49 : 00bc;
    50 : 0000;
    51 : 00bc;
    52   : 0000;
    53 : 00bc;
    54 : 0000;
    55 : 00bc;
    56   : 0000;
    57 : 00bc;
    58 : 0000;
    59 : 00bc;
    60   : 0000;
    61 : 00bc;
    62 : 0000;
    63 : 00bc;
    64   : 0000;
    65 : 00bc;
    66 : 0000;
    67 : 00bc;
    68   : 0000;
    69 : 00bc;
    70 : 0000;
    71 : 00bc;
    72   : 0000;
    73 : 00bc;
    74 : 0000;
    75 : 00bc;
    76   : 0000;
    77 : 00bc;
    78 : 0000;
    79 : 00bc;
    80   : 0000;
    81 : 00bc;
    82 : 0000;
    83 : 00bc;
    84   : 0000;
    85 : 00bc;
    86 : 0000;
    87 : 00bc;
    88   : 0000;
    89 : 00bc;
    90 : 0000;
    91 : 00bc;
    92   : 0000;
    93 : 00bc;
    94 : 0000;
    95 : 00bc;
    96   : 0000;
    97 : 00bc;
    98 : 0000;
    99 : 00bc;
    100   : 0000;
    101 : 00bc;
    102 : 0000;
    103 : 00bc;
    104   : 0000;
    105 : 00bc;
    106 : 0000;
    107 : 00bc;
    108   : 0000;
    109 : 00bc;
    110 : 0000;
    111 : 00bc;
    112   : 0000;
    113 : 00bc;
    114 : 0000;
    115 : 00bc;
    116   : 0000;
    117 : 00bc;
    118 : 0000;
    119 : 00bc;
    120   : 0000;
    121 : 00bc;
    122 : 0000;
    123 : 00bc;
    124   : 0000;
    125 : 00bc;
    126 : 0000;
    127 : 00bc;
    128   : 0000;
    129 : 00bc;
    130 : 0000;
    131 : 00bc;
    132   : 0000;
    133 : 00bc;
    134 : 0000;
    135 : 00bc;
    136   : 0000;
    137 : 00bc;
    138 : 0000;
    139 : 00bc;
    140   : 0000;
    141 : 00bc;
    142 : 0000;
    143 : 00bc;
    144   : 0000;
    145 : 00bc;
    146 : 0000;
    147 : 00bc;
    148   : 0000;
    149 : 00bc;
    150 : 0000;
    151 : 00bc;
    152   : 0000;
    153 : 00bc;
    154 : 0000;
    155 : 00bc;
    156   : 0000;
    157 : 00bc;
    158 : 0000;
    159 : 00bc;
    160   : 0000;
    161 : 00bc;
    162 : 0000;
    163 : 00bc;
    164   : 0000;
    165 : 00bc;
    166 : 0000;
    167 : 00bc;
    168   : 0000;
    169 : 00bc;
    170 : 0000;
    171 : 00bc;
    172   : 0000;
    173 : 00bc;
    174 : 0000;
    175 : 00bc;
    176   : 0000;
    177 : 00bc;
    178 : 0000;
    179 : 00bc;
    180   : 0000;
    181 : 00bc;
    182 : 0000;
    183 : 00bc;
    184   : 0000;
    185 : 00bc;
    186 : 0000;
    187 : 00bc;
    188   : 0000;
    189 : 00bc;
    190 : 0000;
    191 : 00bc;
    192   : 0000;
    193 : 00bc;
    194 : 0000;
    195 : 00bc;
    196   : 0000;
    197 : 00bc;
    198 : 0000;
    199 : 00bc;
    200   : 0000;
    201 : 00bc;
    202 : 0000;
    203 : 00bc;
    204   : 0000;
    205 : 00bc;
    206 : 0000;
    207 : 00bc;
    208   : 0000;
    209 : 00bc;
    210 : 0000;
    211 : 00bc;
    212   : 0000;
    213 : 00bc;
    214 : 0000;
    215 : 00bc;
    216   : 0000;
    217 : 00bc;
    218 : 0000;
    219 : 00bc;
    220   : 0000;
    221 : 00bc;
    222 : 0000;
    223 : 00bc;
    224   : 0000;
    225 : 00bc;
    226 : 0000;
    227 : 00bc;
    228   : 0000;
    229 : 00bc;
    230 : 0000;
    231 : 00bc;
    232   : 0000;
    233 : 00bc;
    234 : 0000;
    235 : 00bc;
    236   : 0000;
    237 : 00bc;
    238 : 0000;
    239 : 00bc;
    240   : 0000;
    241 : 00bc;
    242 : 0000;
    243 : 00bc;
    244   : 0000;
    245 : 00bc;
    246 : 0000;
    247 : 00bc;
    248   : 0000;
    249 : 00bc;
    250 : 0000;
    251 : 00bc;
    252   : 0000;
    253 : 00bc;
    254 : 0000;
    255 : 00bc;
END;
