WIDTH=16;
DEPTH=256;
ADDRESS_RADIX=UNS;
DATA_RADIX=HEX;
CONTENT BEGIN
    0   : 0000;
    1 : 00c8;
    2 : 0000;
    3 : 00c8;
    4   : 0000;
    5 : 00c8;
    6 : 0000;
    7 : 00c8;
    8   : 0000;
    9 : 00c8;
    10 : 0000;
    11 : 00c8;
    12   : 0000;
    13 : 00c8;
    14 : 0000;
    15 : 00c8;
    16   : 0000;
    17 : 00c8;
    18 : 0000;
    19 : 00c8;
    20   : 0000;
    21 : 00c8;
    22 : 0000;
    23 : 00c8;
    24   : 0000;
    25 : 00c8;
    26 : 0000;
    27 : 00c8;
    28   : 0000;
    29 : 00c8;
    30 : 0000;
    31 : 00c8;
    32   : 0000;
    33 : 00c8;
    34 : 0000;
    35 : 00c8;
    36   : 0000;
    37 : 00c8;
    38 : 0000;
    39 : 00c8;
    40   : 0000;
    41 : 00c8;
    42 : 0000;
    43 : 00c8;
    44   : 0000;
    45 : 00c8;
    46 : 0000;
    47 : 00c8;
    48   : 0000;
    49 : 00c8;
    50 : 0000;
    51 : 00c8;
    52   : 0000;
    53 : 00c8;
    54 : 0000;
    55 : 00c8;
    56   : 0000;
    57 : 00c8;
    58 : 0000;
    59 : 00c8;
    60   : 0000;
    61 : 00c8;
    62 : 0000;
    63 : 00c8;
    64   : 0000;
    65 : 00c8;
    66 : 0000;
    67 : 00c8;
    68   : 0000;
    69 : 00c8;
    70 : 0000;
    71 : 00c8;
    72   : 0000;
    73 : 00c8;
    74 : 0000;
    75 : 00c8;
    76   : 0000;
    77 : 00c8;
    78 : 0000;
    79 : 00c8;
    80   : 0000;
    81 : 00c8;
    82 : 0000;
    83 : 00c8;
    84   : 0000;
    85 : 00c8;
    86 : 0000;
    87 : 00c8;
    88   : 0000;
    89 : 00c8;
    90 : 0000;
    91 : 00c8;
    92   : 0000;
    93 : 00c8;
    94 : 0000;
    95 : 00c8;
    96   : 0000;
    97 : 00c8;
    98 : 0000;
    99 : 00c8;
    100   : 0000;
    101 : 00c8;
    102 : 0000;
    103 : 00c8;
    104   : 0000;
    105 : 00c8;
    106 : 0000;
    107 : 00c8;
    108   : 0000;
    109 : 00c8;
    110 : 0000;
    111 : 00c8;
    112   : 0000;
    113 : 00c8;
    114 : 0000;
    115 : 00c8;
    116   : 0000;
    117 : 00c8;
    118 : 0000;
    119 : 00c8;
    120   : 0000;
    121 : 00c8;
    122 : 0000;
    123 : 00c8;
    124   : 0000;
    125 : 00c8;
    126 : 0000;
    127 : 00c8;
    128   : 0000;
    129 : 00c8;
    130 : 0000;
    131 : 00c8;
    132   : 0000;
    133 : 00c8;
    134 : 0000;
    135 : 00c8;
    136   : 0000;
    137 : 00c8;
    138 : 0000;
    139 : 00c8;
    140   : 0000;
    141 : 00c8;
    142 : 0000;
    143 : 00c8;
    144   : 0000;
    145 : 00c8;
    146 : 0000;
    147 : 00c8;
    148   : 0000;
    149 : 00c8;
    150 : 0000;
    151 : 00c8;
    152   : 0000;
    153 : 00c8;
    154 : 0000;
    155 : 00c8;
    156   : 0000;
    157 : 00c8;
    158 : 0000;
    159 : 00c8;
    160   : 0000;
    161 : 00c8;
    162 : 0000;
    163 : 00c8;
    164   : 0000;
    165 : 00c8;
    166 : 0000;
    167 : 00c8;
    168   : 0000;
    169 : 00c8;
    170 : 0000;
    171 : 00c8;
    172   : 0000;
    173 : 00c8;
    174 : 0000;
    175 : 00c8;
    176   : 0000;
    177 : 00c8;
    178 : 0000;
    179 : 00c8;
    180   : 0000;
    181 : 00c8;
    182 : 0000;
    183 : 00c8;
    184   : 0000;
    185 : 00c8;
    186 : 0000;
    187 : 00c8;
    188   : 0000;
    189 : 00c8;
    190 : 0000;
    191 : 00c8;
    192   : 0000;
    193 : 00c8;
    194 : 0000;
    195 : 00c8;
    196   : 0000;
    197 : 00c8;
    198 : 0000;
    199 : 00c8;
    200   : 0000;
    201 : 00c8;
    202 : 0000;
    203 : 00c8;
    204   : 0000;
    205 : 00c8;
    206 : 0000;
    207 : 00c8;
    208   : 0000;
    209 : 00c8;
    210 : 0000;
    211 : 00c8;
    212   : 0000;
    213 : 00c8;
    214 : 0000;
    215 : 00c8;
    216   : 0000;
    217 : 00c8;
    218 : 0000;
    219 : 00c8;
    220   : 0000;
    221 : 00c8;
    222 : 0000;
    223 : 00c8;
    224   : 0000;
    225 : 00c8;
    226 : 0000;
    227 : 00c8;
    228   : 0000;
    229 : 00c8;
    230 : 0000;
    231 : 00c8;
    232   : 0000;
    233 : 00c8;
    234 : 0000;
    235 : 00c8;
    236   : 0000;
    237 : 00c8;
    238 : 0000;
    239 : 00c8;
    240   : 0000;
    241 : 00c8;
    242 : 0000;
    243 : 00c8;
    244   : 0000;
    245 : 00c8;
    246 : 0000;
    247 : 00c8;
    248   : 0000;
    249 : 00c8;
    250 : 0000;
    251 : 00c8;
    252   : 0000;
    253 : 00c8;
    254 : 0000;
    255 : 00c8;
END;
