WIDTH=16;
DEPTH=256;
ADDRESS_RADIX=UNS;
DATA_RADIX=HEX;
CONTENT BEGIN
    0   : 0000;
    1 : 00b8;
    2 : 0000;
    3 : 00b8;
    4   : 0000;
    5 : 00b8;
    6 : 0000;
    7 : 00b8;
    8   : 0000;
    9 : 00b8;
    10 : 0000;
    11 : 00b8;
    12   : 0000;
    13 : 00b8;
    14 : 0000;
    15 : 00b8;
    16   : 0000;
    17 : 00b8;
    18 : 0000;
    19 : 00b8;
    20   : 0000;
    21 : 00b8;
    22 : 0000;
    23 : 00b8;
    24   : 0000;
    25 : 00b8;
    26 : 0000;
    27 : 00b8;
    28   : 0000;
    29 : 00b8;
    30 : 0000;
    31 : 00b8;
    32   : 0000;
    33 : 00b8;
    34 : 0000;
    35 : 00b8;
    36   : 0000;
    37 : 00b8;
    38 : 0000;
    39 : 00b8;
    40   : 0000;
    41 : 00b8;
    42 : 0000;
    43 : 00b8;
    44   : 0000;
    45 : 00b8;
    46 : 0000;
    47 : 00b8;
    48   : 0000;
    49 : 00b8;
    50 : 0000;
    51 : 00b8;
    52   : 0000;
    53 : 00b8;
    54 : 0000;
    55 : 00b8;
    56   : 0000;
    57 : 00b8;
    58 : 0000;
    59 : 00b8;
    60   : 0000;
    61 : 00b8;
    62 : 0000;
    63 : 00b8;
    64   : 0000;
    65 : 00b8;
    66 : 0000;
    67 : 00b8;
    68   : 0000;
    69 : 00b8;
    70 : 0000;
    71 : 00b8;
    72   : 0000;
    73 : 00b8;
    74 : 0000;
    75 : 00b8;
    76   : 0000;
    77 : 00b8;
    78 : 0000;
    79 : 00b8;
    80   : 0000;
    81 : 00b8;
    82 : 0000;
    83 : 00b8;
    84   : 0000;
    85 : 00b8;
    86 : 0000;
    87 : 00b8;
    88   : 0000;
    89 : 00b8;
    90 : 0000;
    91 : 00b8;
    92   : 0000;
    93 : 00b8;
    94 : 0000;
    95 : 00b8;
    96   : 0000;
    97 : 00b8;
    98 : 0000;
    99 : 00b8;
    100   : 0000;
    101 : 00b8;
    102 : 0000;
    103 : 00b8;
    104   : 0000;
    105 : 00b8;
    106 : 0000;
    107 : 00b8;
    108   : 0000;
    109 : 00b8;
    110 : 0000;
    111 : 00b8;
    112   : 0000;
    113 : 00b8;
    114 : 0000;
    115 : 00b8;
    116   : 0000;
    117 : 00b8;
    118 : 0000;
    119 : 00b8;
    120   : 0000;
    121 : 00b8;
    122 : 0000;
    123 : 00b8;
    124   : 0000;
    125 : 00b8;
    126 : 0000;
    127 : 00b8;
    128   : 0000;
    129 : 00b8;
    130 : 0000;
    131 : 00b8;
    132   : 0000;
    133 : 00b8;
    134 : 0000;
    135 : 00b8;
    136   : 0000;
    137 : 00b8;
    138 : 0000;
    139 : 00b8;
    140   : 0000;
    141 : 00b8;
    142 : 0000;
    143 : 00b8;
    144   : 0000;
    145 : 00b8;
    146 : 0000;
    147 : 00b8;
    148   : 0000;
    149 : 00b8;
    150 : 0000;
    151 : 00b8;
    152   : 0000;
    153 : 00b8;
    154 : 0000;
    155 : 00b8;
    156   : 0000;
    157 : 00b8;
    158 : 0000;
    159 : 00b8;
    160   : 0000;
    161 : 00b8;
    162 : 0000;
    163 : 00b8;
    164   : 0000;
    165 : 00b8;
    166 : 0000;
    167 : 00b8;
    168   : 0000;
    169 : 00b8;
    170 : 0000;
    171 : 00b8;
    172   : 0000;
    173 : 00b8;
    174 : 0000;
    175 : 00b8;
    176   : 0000;
    177 : 00b8;
    178 : 0000;
    179 : 00b8;
    180   : 0000;
    181 : 00b8;
    182 : 0000;
    183 : 00b8;
    184   : 0000;
    185 : 00b8;
    186 : 0000;
    187 : 00b8;
    188   : 0000;
    189 : 00b8;
    190 : 0000;
    191 : 00b8;
    192   : 0000;
    193 : 00b8;
    194 : 0000;
    195 : 00b8;
    196   : 0000;
    197 : 00b8;
    198 : 0000;
    199 : 00b8;
    200   : 0000;
    201 : 00b8;
    202 : 0000;
    203 : 00b8;
    204   : 0000;
    205 : 00b8;
    206 : 0000;
    207 : 00b8;
    208   : 0000;
    209 : 00b8;
    210 : 0000;
    211 : 00b8;
    212   : 0000;
    213 : 00b8;
    214 : 0000;
    215 : 00b8;
    216   : 0000;
    217 : 00b8;
    218 : 0000;
    219 : 00b8;
    220   : 0000;
    221 : 00b8;
    222 : 0000;
    223 : 00b8;
    224   : 0000;
    225 : 00b8;
    226 : 0000;
    227 : 00b8;
    228   : 0000;
    229 : 00b8;
    230 : 0000;
    231 : 00b8;
    232   : 0000;
    233 : 00b8;
    234 : 0000;
    235 : 00b8;
    236   : 0000;
    237 : 00b8;
    238 : 0000;
    239 : 00b8;
    240   : 0000;
    241 : 00b8;
    242 : 0000;
    243 : 00b8;
    244   : 0000;
    245 : 00b8;
    246 : 0000;
    247 : 00b8;
    248   : 0000;
    249 : 00b8;
    250 : 0000;
    251 : 00b8;
    252   : 0000;
    253 : 00b8;
    254 : 0000;
    255 : 00b8;
END;
