WIDTH=16;
DEPTH=256;
ADDRESS_RADIX=UNS;
DATA_RADIX=HEX;
CONTENT BEGIN
    0   : 0000;
    1 : 00cc;
    2 : 0000;
    3 : 00cc;
    4   : 0000;
    5 : 00cc;
    6 : 0000;
    7 : 00cc;
    8   : 0000;
    9 : 00cc;
    10 : 0000;
    11 : 00cc;
    12   : 0000;
    13 : 00cc;
    14 : 0000;
    15 : 00cc;
    16   : 0000;
    17 : 00cc;
    18 : 0000;
    19 : 00cc;
    20   : 0000;
    21 : 00cc;
    22 : 0000;
    23 : 00cc;
    24   : 0000;
    25 : 00cc;
    26 : 0000;
    27 : 00cc;
    28   : 0000;
    29 : 00cc;
    30 : 0000;
    31 : 00cc;
    32   : 0000;
    33 : 00cc;
    34 : 0000;
    35 : 00cc;
    36   : 0000;
    37 : 00cc;
    38 : 0000;
    39 : 00cc;
    40   : 0000;
    41 : 00cc;
    42 : 0000;
    43 : 00cc;
    44   : 0000;
    45 : 00cc;
    46 : 0000;
    47 : 00cc;
    48   : 0000;
    49 : 00cc;
    50 : 0000;
    51 : 00cc;
    52   : 0000;
    53 : 00cc;
    54 : 0000;
    55 : 00cc;
    56   : 0000;
    57 : 00cc;
    58 : 0000;
    59 : 00cc;
    60   : 0000;
    61 : 00cc;
    62 : 0000;
    63 : 00cc;
    64   : 0000;
    65 : 00cc;
    66 : 0000;
    67 : 00cc;
    68   : 0000;
    69 : 00cc;
    70 : 0000;
    71 : 00cc;
    72   : 0000;
    73 : 00cc;
    74 : 0000;
    75 : 00cc;
    76   : 0000;
    77 : 00cc;
    78 : 0000;
    79 : 00cc;
    80   : 0000;
    81 : 00cc;
    82 : 0000;
    83 : 00cc;
    84   : 0000;
    85 : 00cc;
    86 : 0000;
    87 : 00cc;
    88   : 0000;
    89 : 00cc;
    90 : 0000;
    91 : 00cc;
    92   : 0000;
    93 : 00cc;
    94 : 0000;
    95 : 00cc;
    96   : 0000;
    97 : 00cc;
    98 : 0000;
    99 : 00cc;
    100   : 0000;
    101 : 00cc;
    102 : 0000;
    103 : 00cc;
    104   : 0000;
    105 : 00cc;
    106 : 0000;
    107 : 00cc;
    108   : 0000;
    109 : 00cc;
    110 : 0000;
    111 : 00cc;
    112   : 0000;
    113 : 00cc;
    114 : 0000;
    115 : 00cc;
    116   : 0000;
    117 : 00cc;
    118 : 0000;
    119 : 00cc;
    120   : 0000;
    121 : 00cc;
    122 : 0000;
    123 : 00cc;
    124   : 0000;
    125 : 00cc;
    126 : 0000;
    127 : 00cc;
    128   : 0000;
    129 : 00cc;
    130 : 0000;
    131 : 00cc;
    132   : 0000;
    133 : 00cc;
    134 : 0000;
    135 : 00cc;
    136   : 0000;
    137 : 00cc;
    138 : 0000;
    139 : 00cc;
    140   : 0000;
    141 : 00cc;
    142 : 0000;
    143 : 00cc;
    144   : 0000;
    145 : 00cc;
    146 : 0000;
    147 : 00cc;
    148   : 0000;
    149 : 00cc;
    150 : 0000;
    151 : 00cc;
    152   : 0000;
    153 : 00cc;
    154 : 0000;
    155 : 00cc;
    156   : 0000;
    157 : 00cc;
    158 : 0000;
    159 : 00cc;
    160   : 0000;
    161 : 00cc;
    162 : 0000;
    163 : 00cc;
    164   : 0000;
    165 : 00cc;
    166 : 0000;
    167 : 00cc;
    168   : 0000;
    169 : 00cc;
    170 : 0000;
    171 : 00cc;
    172   : 0000;
    173 : 00cc;
    174 : 0000;
    175 : 00cc;
    176   : 0000;
    177 : 00cc;
    178 : 0000;
    179 : 00cc;
    180   : 0000;
    181 : 00cc;
    182 : 0000;
    183 : 00cc;
    184   : 0000;
    185 : 00cc;
    186 : 0000;
    187 : 00cc;
    188   : 0000;
    189 : 00cc;
    190 : 0000;
    191 : 00cc;
    192   : 0000;
    193 : 00cc;
    194 : 0000;
    195 : 00cc;
    196   : 0000;
    197 : 00cc;
    198 : 0000;
    199 : 00cc;
    200   : 0000;
    201 : 00cc;
    202 : 0000;
    203 : 00cc;
    204   : 0000;
    205 : 00cc;
    206 : 0000;
    207 : 00cc;
    208   : 0000;
    209 : 00cc;
    210 : 0000;
    211 : 00cc;
    212   : 0000;
    213 : 00cc;
    214 : 0000;
    215 : 00cc;
    216   : 0000;
    217 : 00cc;
    218 : 0000;
    219 : 00cc;
    220   : 0000;
    221 : 00cc;
    222 : 0000;
    223 : 00cc;
    224   : 0000;
    225 : 00cc;
    226 : 0000;
    227 : 00cc;
    228   : 0000;
    229 : 00cc;
    230 : 0000;
    231 : 00cc;
    232   : 0000;
    233 : 00cc;
    234 : 0000;
    235 : 00cc;
    236   : 0000;
    237 : 00cc;
    238 : 0000;
    239 : 00cc;
    240   : 0000;
    241 : 00cc;
    242 : 0000;
    243 : 00cc;
    244   : 0000;
    245 : 00cc;
    246 : 0000;
    247 : 00cc;
    248   : 0000;
    249 : 00cc;
    250 : 0000;
    251 : 00cc;
    252   : 0000;
    253 : 00cc;
    254 : 0000;
    255 : 00cc;
END;
