WIDTH=16;
DEPTH=256;
ADDRESS_RADIX=UNS;
DATA_RADIX=HEX;
CONTENT BEGIN
    0   : 0000;
    1 : 0086;
    2 : 0000;
    3 : 0086;
    4   : 0000;
    5 : 0086;
    6 : 0000;
    7 : 0086;
    8   : 0000;
    9 : 0086;
    10 : 0000;
    11 : 0086;
    12   : 0000;
    13 : 0086;
    14 : 0000;
    15 : 0086;
    16   : 0000;
    17 : 0086;
    18 : 0000;
    19 : 0086;
    20   : 0000;
    21 : 0086;
    22 : 0000;
    23 : 0086;
    24   : 0000;
    25 : 0086;
    26 : 0000;
    27 : 0086;
    28   : 0000;
    29 : 0086;
    30 : 0000;
    31 : 0086;
    32   : 0000;
    33 : 0086;
    34 : 0000;
    35 : 0086;
    36   : 0000;
    37 : 0086;
    38 : 0000;
    39 : 0086;
    40   : 0000;
    41 : 0086;
    42 : 0000;
    43 : 0086;
    44   : 0000;
    45 : 0086;
    46 : 0000;
    47 : 0086;
    48   : 0000;
    49 : 0086;
    50 : 0000;
    51 : 0086;
    52   : 0000;
    53 : 0086;
    54 : 0000;
    55 : 0086;
    56   : 0000;
    57 : 0086;
    58 : 0000;
    59 : 0086;
    60   : 0000;
    61 : 0086;
    62 : 0000;
    63 : 0086;
    64   : 0000;
    65 : 0086;
    66 : 0000;
    67 : 0086;
    68   : 0000;
    69 : 0086;
    70 : 0000;
    71 : 0086;
    72   : 0000;
    73 : 0086;
    74 : 0000;
    75 : 0086;
    76   : 0000;
    77 : 0086;
    78 : 0000;
    79 : 0086;
    80   : 0000;
    81 : 0086;
    82 : 0000;
    83 : 0086;
    84   : 0000;
    85 : 0086;
    86 : 0000;
    87 : 0086;
    88   : 0000;
    89 : 0086;
    90 : 0000;
    91 : 0086;
    92   : 0000;
    93 : 0086;
    94 : 0000;
    95 : 0086;
    96   : 0000;
    97 : 0086;
    98 : 0000;
    99 : 0086;
    100   : 0000;
    101 : 0086;
    102 : 0000;
    103 : 0086;
    104   : 0000;
    105 : 0086;
    106 : 0000;
    107 : 0086;
    108   : 0000;
    109 : 0086;
    110 : 0000;
    111 : 0086;
    112   : 0000;
    113 : 0086;
    114 : 0000;
    115 : 0086;
    116   : 0000;
    117 : 0086;
    118 : 0000;
    119 : 0086;
    120   : 0000;
    121 : 0086;
    122 : 0000;
    123 : 0086;
    124   : 0000;
    125 : 0086;
    126 : 0000;
    127 : 0086;
    128   : 0000;
    129 : 0086;
    130 : 0000;
    131 : 0086;
    132   : 0000;
    133 : 0086;
    134 : 0000;
    135 : 0086;
    136   : 0000;
    137 : 0086;
    138 : 0000;
    139 : 0086;
    140   : 0000;
    141 : 0086;
    142 : 0000;
    143 : 0086;
    144   : 0000;
    145 : 0086;
    146 : 0000;
    147 : 0086;
    148   : 0000;
    149 : 0086;
    150 : 0000;
    151 : 0086;
    152   : 0000;
    153 : 0086;
    154 : 0000;
    155 : 0086;
    156   : 0000;
    157 : 0086;
    158 : 0000;
    159 : 0086;
    160   : 0000;
    161 : 0086;
    162 : 0000;
    163 : 0086;
    164   : 0000;
    165 : 0086;
    166 : 0000;
    167 : 0086;
    168   : 0000;
    169 : 0086;
    170 : 0000;
    171 : 0086;
    172   : 0000;
    173 : 0086;
    174 : 0000;
    175 : 0086;
    176   : 0000;
    177 : 0086;
    178 : 0000;
    179 : 0086;
    180   : 0000;
    181 : 0086;
    182 : 0000;
    183 : 0086;
    184   : 0000;
    185 : 0086;
    186 : 0000;
    187 : 0086;
    188   : 0000;
    189 : 0086;
    190 : 0000;
    191 : 0086;
    192   : 0000;
    193 : 0086;
    194 : 0000;
    195 : 0086;
    196   : 0000;
    197 : 0086;
    198 : 0000;
    199 : 0086;
    200   : 0000;
    201 : 0086;
    202 : 0000;
    203 : 0086;
    204   : 0000;
    205 : 0086;
    206 : 0000;
    207 : 0086;
    208   : 0000;
    209 : 0086;
    210 : 0000;
    211 : 0086;
    212   : 0000;
    213 : 0086;
    214 : 0000;
    215 : 0086;
    216   : 0000;
    217 : 0086;
    218 : 0000;
    219 : 0086;
    220   : 0000;
    221 : 0086;
    222 : 0000;
    223 : 0086;
    224   : 0000;
    225 : 0086;
    226 : 0000;
    227 : 0086;
    228   : 0000;
    229 : 0086;
    230 : 0000;
    231 : 0086;
    232   : 0000;
    233 : 0086;
    234 : 0000;
    235 : 0086;
    236   : 0000;
    237 : 0086;
    238 : 0000;
    239 : 0086;
    240   : 0000;
    241 : 0086;
    242 : 0000;
    243 : 0086;
    244   : 0000;
    245 : 0086;
    246 : 0000;
    247 : 0086;
    248   : 0000;
    249 : 0086;
    250 : 0000;
    251 : 0086;
    252   : 0000;
    253 : 0086;
    254 : 0000;
    255 : 0086;
END;
