WIDTH=16;
DEPTH=256;
ADDRESS_RADIX=UNS;
DATA_RADIX=HEX;
CONTENT BEGIN
    0   : 0000;
    1 : 00aa;
    2 : 0000;
    3 : 00aa;
    4   : 0000;
    5 : 00aa;
    6 : 0000;
    7 : 00aa;
    8   : 0000;
    9 : 00aa;
    10 : 0000;
    11 : 00aa;
    12   : 0000;
    13 : 00aa;
    14 : 0000;
    15 : 00aa;
    16   : 0000;
    17 : 00aa;
    18 : 0000;
    19 : 00aa;
    20   : 0000;
    21 : 00aa;
    22 : 0000;
    23 : 00aa;
    24   : 0000;
    25 : 00aa;
    26 : 0000;
    27 : 00aa;
    28   : 0000;
    29 : 00aa;
    30 : 0000;
    31 : 00aa;
    32   : 0000;
    33 : 00aa;
    34 : 0000;
    35 : 00aa;
    36   : 0000;
    37 : 00aa;
    38 : 0000;
    39 : 00aa;
    40   : 0000;
    41 : 00aa;
    42 : 0000;
    43 : 00aa;
    44   : 0000;
    45 : 00aa;
    46 : 0000;
    47 : 00aa;
    48   : 0000;
    49 : 00aa;
    50 : 0000;
    51 : 00aa;
    52   : 0000;
    53 : 00aa;
    54 : 0000;
    55 : 00aa;
    56   : 0000;
    57 : 00aa;
    58 : 0000;
    59 : 00aa;
    60   : 0000;
    61 : 00aa;
    62 : 0000;
    63 : 00aa;
    64   : 0000;
    65 : 00aa;
    66 : 0000;
    67 : 00aa;
    68   : 0000;
    69 : 00aa;
    70 : 0000;
    71 : 00aa;
    72   : 0000;
    73 : 00aa;
    74 : 0000;
    75 : 00aa;
    76   : 0000;
    77 : 00aa;
    78 : 0000;
    79 : 00aa;
    80   : 0000;
    81 : 00aa;
    82 : 0000;
    83 : 00aa;
    84   : 0000;
    85 : 00aa;
    86 : 0000;
    87 : 00aa;
    88   : 0000;
    89 : 00aa;
    90 : 0000;
    91 : 00aa;
    92   : 0000;
    93 : 00aa;
    94 : 0000;
    95 : 00aa;
    96   : 0000;
    97 : 00aa;
    98 : 0000;
    99 : 00aa;
    100   : 0000;
    101 : 00aa;
    102 : 0000;
    103 : 00aa;
    104   : 0000;
    105 : 00aa;
    106 : 0000;
    107 : 00aa;
    108   : 0000;
    109 : 00aa;
    110 : 0000;
    111 : 00aa;
    112   : 0000;
    113 : 00aa;
    114 : 0000;
    115 : 00aa;
    116   : 0000;
    117 : 00aa;
    118 : 0000;
    119 : 00aa;
    120   : 0000;
    121 : 00aa;
    122 : 0000;
    123 : 00aa;
    124   : 0000;
    125 : 00aa;
    126 : 0000;
    127 : 00aa;
    128   : 0000;
    129 : 00aa;
    130 : 0000;
    131 : 00aa;
    132   : 0000;
    133 : 00aa;
    134 : 0000;
    135 : 00aa;
    136   : 0000;
    137 : 00aa;
    138 : 0000;
    139 : 00aa;
    140   : 0000;
    141 : 00aa;
    142 : 0000;
    143 : 00aa;
    144   : 0000;
    145 : 00aa;
    146 : 0000;
    147 : 00aa;
    148   : 0000;
    149 : 00aa;
    150 : 0000;
    151 : 00aa;
    152   : 0000;
    153 : 00aa;
    154 : 0000;
    155 : 00aa;
    156   : 0000;
    157 : 00aa;
    158 : 0000;
    159 : 00aa;
    160   : 0000;
    161 : 00aa;
    162 : 0000;
    163 : 00aa;
    164   : 0000;
    165 : 00aa;
    166 : 0000;
    167 : 00aa;
    168   : 0000;
    169 : 00aa;
    170 : 0000;
    171 : 00aa;
    172   : 0000;
    173 : 00aa;
    174 : 0000;
    175 : 00aa;
    176   : 0000;
    177 : 00aa;
    178 : 0000;
    179 : 00aa;
    180   : 0000;
    181 : 00aa;
    182 : 0000;
    183 : 00aa;
    184   : 0000;
    185 : 00aa;
    186 : 0000;
    187 : 00aa;
    188   : 0000;
    189 : 00aa;
    190 : 0000;
    191 : 00aa;
    192   : 0000;
    193 : 00aa;
    194 : 0000;
    195 : 00aa;
    196   : 0000;
    197 : 00aa;
    198 : 0000;
    199 : 00aa;
    200   : 0000;
    201 : 00aa;
    202 : 0000;
    203 : 00aa;
    204   : 0000;
    205 : 00aa;
    206 : 0000;
    207 : 00aa;
    208   : 0000;
    209 : 00aa;
    210 : 0000;
    211 : 00aa;
    212   : 0000;
    213 : 00aa;
    214 : 0000;
    215 : 00aa;
    216   : 0000;
    217 : 00aa;
    218 : 0000;
    219 : 00aa;
    220   : 0000;
    221 : 00aa;
    222 : 0000;
    223 : 00aa;
    224   : 0000;
    225 : 00aa;
    226 : 0000;
    227 : 00aa;
    228   : 0000;
    229 : 00aa;
    230 : 0000;
    231 : 00aa;
    232   : 0000;
    233 : 00aa;
    234 : 0000;
    235 : 00aa;
    236   : 0000;
    237 : 00aa;
    238 : 0000;
    239 : 00aa;
    240   : 0000;
    241 : 00aa;
    242 : 0000;
    243 : 00aa;
    244   : 0000;
    245 : 00aa;
    246 : 0000;
    247 : 00aa;
    248   : 0000;
    249 : 00aa;
    250 : 0000;
    251 : 00aa;
    252   : 0000;
    253 : 00aa;
    254 : 0000;
    255 : 00aa;
END;
