WIDTH=16;
DEPTH=256;
ADDRESS_RADIX=UNS;
DATA_RADIX=HEX;
CONTENT BEGIN
    0   : 0000;
    1 : 00b6;
    2 : 0000;
    3 : 00b6;
    4   : 0000;
    5 : 00b6;
    6 : 0000;
    7 : 00b6;
    8   : 0000;
    9 : 00b6;
    10 : 0000;
    11 : 00b6;
    12   : 0000;
    13 : 00b6;
    14 : 0000;
    15 : 00b6;
    16   : 0000;
    17 : 00b6;
    18 : 0000;
    19 : 00b6;
    20   : 0000;
    21 : 00b6;
    22 : 0000;
    23 : 00b6;
    24   : 0000;
    25 : 00b6;
    26 : 0000;
    27 : 00b6;
    28   : 0000;
    29 : 00b6;
    30 : 0000;
    31 : 00b6;
    32   : 0000;
    33 : 00b6;
    34 : 0000;
    35 : 00b6;
    36   : 0000;
    37 : 00b6;
    38 : 0000;
    39 : 00b6;
    40   : 0000;
    41 : 00b6;
    42 : 0000;
    43 : 00b6;
    44   : 0000;
    45 : 00b6;
    46 : 0000;
    47 : 00b6;
    48   : 0000;
    49 : 00b6;
    50 : 0000;
    51 : 00b6;
    52   : 0000;
    53 : 00b6;
    54 : 0000;
    55 : 00b6;
    56   : 0000;
    57 : 00b6;
    58 : 0000;
    59 : 00b6;
    60   : 0000;
    61 : 00b6;
    62 : 0000;
    63 : 00b6;
    64   : 0000;
    65 : 00b6;
    66 : 0000;
    67 : 00b6;
    68   : 0000;
    69 : 00b6;
    70 : 0000;
    71 : 00b6;
    72   : 0000;
    73 : 00b6;
    74 : 0000;
    75 : 00b6;
    76   : 0000;
    77 : 00b6;
    78 : 0000;
    79 : 00b6;
    80   : 0000;
    81 : 00b6;
    82 : 0000;
    83 : 00b6;
    84   : 0000;
    85 : 00b6;
    86 : 0000;
    87 : 00b6;
    88   : 0000;
    89 : 00b6;
    90 : 0000;
    91 : 00b6;
    92   : 0000;
    93 : 00b6;
    94 : 0000;
    95 : 00b6;
    96   : 0000;
    97 : 00b6;
    98 : 0000;
    99 : 00b6;
    100   : 0000;
    101 : 00b6;
    102 : 0000;
    103 : 00b6;
    104   : 0000;
    105 : 00b6;
    106 : 0000;
    107 : 00b6;
    108   : 0000;
    109 : 00b6;
    110 : 0000;
    111 : 00b6;
    112   : 0000;
    113 : 00b6;
    114 : 0000;
    115 : 00b6;
    116   : 0000;
    117 : 00b6;
    118 : 0000;
    119 : 00b6;
    120   : 0000;
    121 : 00b6;
    122 : 0000;
    123 : 00b6;
    124   : 0000;
    125 : 00b6;
    126 : 0000;
    127 : 00b6;
    128   : 0000;
    129 : 00b6;
    130 : 0000;
    131 : 00b6;
    132   : 0000;
    133 : 00b6;
    134 : 0000;
    135 : 00b6;
    136   : 0000;
    137 : 00b6;
    138 : 0000;
    139 : 00b6;
    140   : 0000;
    141 : 00b6;
    142 : 0000;
    143 : 00b6;
    144   : 0000;
    145 : 00b6;
    146 : 0000;
    147 : 00b6;
    148   : 0000;
    149 : 00b6;
    150 : 0000;
    151 : 00b6;
    152   : 0000;
    153 : 00b6;
    154 : 0000;
    155 : 00b6;
    156   : 0000;
    157 : 00b6;
    158 : 0000;
    159 : 00b6;
    160   : 0000;
    161 : 00b6;
    162 : 0000;
    163 : 00b6;
    164   : 0000;
    165 : 00b6;
    166 : 0000;
    167 : 00b6;
    168   : 0000;
    169 : 00b6;
    170 : 0000;
    171 : 00b6;
    172   : 0000;
    173 : 00b6;
    174 : 0000;
    175 : 00b6;
    176   : 0000;
    177 : 00b6;
    178 : 0000;
    179 : 00b6;
    180   : 0000;
    181 : 00b6;
    182 : 0000;
    183 : 00b6;
    184   : 0000;
    185 : 00b6;
    186 : 0000;
    187 : 00b6;
    188   : 0000;
    189 : 00b6;
    190 : 0000;
    191 : 00b6;
    192   : 0000;
    193 : 00b6;
    194 : 0000;
    195 : 00b6;
    196   : 0000;
    197 : 00b6;
    198 : 0000;
    199 : 00b6;
    200   : 0000;
    201 : 00b6;
    202 : 0000;
    203 : 00b6;
    204   : 0000;
    205 : 00b6;
    206 : 0000;
    207 : 00b6;
    208   : 0000;
    209 : 00b6;
    210 : 0000;
    211 : 00b6;
    212   : 0000;
    213 : 00b6;
    214 : 0000;
    215 : 00b6;
    216   : 0000;
    217 : 00b6;
    218 : 0000;
    219 : 00b6;
    220   : 0000;
    221 : 00b6;
    222 : 0000;
    223 : 00b6;
    224   : 0000;
    225 : 00b6;
    226 : 0000;
    227 : 00b6;
    228   : 0000;
    229 : 00b6;
    230 : 0000;
    231 : 00b6;
    232   : 0000;
    233 : 00b6;
    234 : 0000;
    235 : 00b6;
    236   : 0000;
    237 : 00b6;
    238 : 0000;
    239 : 00b6;
    240   : 0000;
    241 : 00b6;
    242 : 0000;
    243 : 00b6;
    244   : 0000;
    245 : 00b6;
    246 : 0000;
    247 : 00b6;
    248   : 0000;
    249 : 00b6;
    250 : 0000;
    251 : 00b6;
    252   : 0000;
    253 : 00b6;
    254 : 0000;
    255 : 00b6;
END;
