WIDTH=16;
DEPTH=256;
ADDRESS_RADIX=UNS;
DATA_RADIX=HEX;
CONTENT BEGIN
    0   : 0000;
    1 : 00be;
    2 : 0000;
    3 : 00be;
    4   : 0000;
    5 : 00be;
    6 : 0000;
    7 : 00be;
    8   : 0000;
    9 : 00be;
    10 : 0000;
    11 : 00be;
    12   : 0000;
    13 : 00be;
    14 : 0000;
    15 : 00be;
    16   : 0000;
    17 : 00be;
    18 : 0000;
    19 : 00be;
    20   : 0000;
    21 : 00be;
    22 : 0000;
    23 : 00be;
    24   : 0000;
    25 : 00be;
    26 : 0000;
    27 : 00be;
    28   : 0000;
    29 : 00be;
    30 : 0000;
    31 : 00be;
    32   : 0000;
    33 : 00be;
    34 : 0000;
    35 : 00be;
    36   : 0000;
    37 : 00be;
    38 : 0000;
    39 : 00be;
    40   : 0000;
    41 : 00be;
    42 : 0000;
    43 : 00be;
    44   : 0000;
    45 : 00be;
    46 : 0000;
    47 : 00be;
    48   : 0000;
    49 : 00be;
    50 : 0000;
    51 : 00be;
    52   : 0000;
    53 : 00be;
    54 : 0000;
    55 : 00be;
    56   : 0000;
    57 : 00be;
    58 : 0000;
    59 : 00be;
    60   : 0000;
    61 : 00be;
    62 : 0000;
    63 : 00be;
    64   : 0000;
    65 : 00be;
    66 : 0000;
    67 : 00be;
    68   : 0000;
    69 : 00be;
    70 : 0000;
    71 : 00be;
    72   : 0000;
    73 : 00be;
    74 : 0000;
    75 : 00be;
    76   : 0000;
    77 : 00be;
    78 : 0000;
    79 : 00be;
    80   : 0000;
    81 : 00be;
    82 : 0000;
    83 : 00be;
    84   : 0000;
    85 : 00be;
    86 : 0000;
    87 : 00be;
    88   : 0000;
    89 : 00be;
    90 : 0000;
    91 : 00be;
    92   : 0000;
    93 : 00be;
    94 : 0000;
    95 : 00be;
    96   : 0000;
    97 : 00be;
    98 : 0000;
    99 : 00be;
    100   : 0000;
    101 : 00be;
    102 : 0000;
    103 : 00be;
    104   : 0000;
    105 : 00be;
    106 : 0000;
    107 : 00be;
    108   : 0000;
    109 : 00be;
    110 : 0000;
    111 : 00be;
    112   : 0000;
    113 : 00be;
    114 : 0000;
    115 : 00be;
    116   : 0000;
    117 : 00be;
    118 : 0000;
    119 : 00be;
    120   : 0000;
    121 : 00be;
    122 : 0000;
    123 : 00be;
    124   : 0000;
    125 : 00be;
    126 : 0000;
    127 : 00be;
    128   : 0000;
    129 : 00be;
    130 : 0000;
    131 : 00be;
    132   : 0000;
    133 : 00be;
    134 : 0000;
    135 : 00be;
    136   : 0000;
    137 : 00be;
    138 : 0000;
    139 : 00be;
    140   : 0000;
    141 : 00be;
    142 : 0000;
    143 : 00be;
    144   : 0000;
    145 : 00be;
    146 : 0000;
    147 : 00be;
    148   : 0000;
    149 : 00be;
    150 : 0000;
    151 : 00be;
    152   : 0000;
    153 : 00be;
    154 : 0000;
    155 : 00be;
    156   : 0000;
    157 : 00be;
    158 : 0000;
    159 : 00be;
    160   : 0000;
    161 : 00be;
    162 : 0000;
    163 : 00be;
    164   : 0000;
    165 : 00be;
    166 : 0000;
    167 : 00be;
    168   : 0000;
    169 : 00be;
    170 : 0000;
    171 : 00be;
    172   : 0000;
    173 : 00be;
    174 : 0000;
    175 : 00be;
    176   : 0000;
    177 : 00be;
    178 : 0000;
    179 : 00be;
    180   : 0000;
    181 : 00be;
    182 : 0000;
    183 : 00be;
    184   : 0000;
    185 : 00be;
    186 : 0000;
    187 : 00be;
    188   : 0000;
    189 : 00be;
    190 : 0000;
    191 : 00be;
    192   : 0000;
    193 : 00be;
    194 : 0000;
    195 : 00be;
    196   : 0000;
    197 : 00be;
    198 : 0000;
    199 : 00be;
    200   : 0000;
    201 : 00be;
    202 : 0000;
    203 : 00be;
    204   : 0000;
    205 : 00be;
    206 : 0000;
    207 : 00be;
    208   : 0000;
    209 : 00be;
    210 : 0000;
    211 : 00be;
    212   : 0000;
    213 : 00be;
    214 : 0000;
    215 : 00be;
    216   : 0000;
    217 : 00be;
    218 : 0000;
    219 : 00be;
    220   : 0000;
    221 : 00be;
    222 : 0000;
    223 : 00be;
    224   : 0000;
    225 : 00be;
    226 : 0000;
    227 : 00be;
    228   : 0000;
    229 : 00be;
    230 : 0000;
    231 : 00be;
    232   : 0000;
    233 : 00be;
    234 : 0000;
    235 : 00be;
    236   : 0000;
    237 : 00be;
    238 : 0000;
    239 : 00be;
    240   : 0000;
    241 : 00be;
    242 : 0000;
    243 : 00be;
    244   : 0000;
    245 : 00be;
    246 : 0000;
    247 : 00be;
    248   : 0000;
    249 : 00be;
    250 : 0000;
    251 : 00be;
    252   : 0000;
    253 : 00be;
    254 : 0000;
    255 : 00be;
END;
