WIDTH=16;
DEPTH=256;
ADDRESS_RADIX=UNS;
DATA_RADIX=HEX;
CONTENT BEGIN
    0   : 0000;
    1 : 008a;
    2 : 0000;
    3 : 008a;
    4   : 0000;
    5 : 008a;
    6 : 0000;
    7 : 008a;
    8   : 0000;
    9 : 008a;
    10 : 0000;
    11 : 008a;
    12   : 0000;
    13 : 008a;
    14 : 0000;
    15 : 008a;
    16   : 0000;
    17 : 008a;
    18 : 0000;
    19 : 008a;
    20   : 0000;
    21 : 008a;
    22 : 0000;
    23 : 008a;
    24   : 0000;
    25 : 008a;
    26 : 0000;
    27 : 008a;
    28   : 0000;
    29 : 008a;
    30 : 0000;
    31 : 008a;
    32   : 0000;
    33 : 008a;
    34 : 0000;
    35 : 008a;
    36   : 0000;
    37 : 008a;
    38 : 0000;
    39 : 008a;
    40   : 0000;
    41 : 008a;
    42 : 0000;
    43 : 008a;
    44   : 0000;
    45 : 008a;
    46 : 0000;
    47 : 008a;
    48   : 0000;
    49 : 008a;
    50 : 0000;
    51 : 008a;
    52   : 0000;
    53 : 008a;
    54 : 0000;
    55 : 008a;
    56   : 0000;
    57 : 008a;
    58 : 0000;
    59 : 008a;
    60   : 0000;
    61 : 008a;
    62 : 0000;
    63 : 008a;
    64   : 0000;
    65 : 008a;
    66 : 0000;
    67 : 008a;
    68   : 0000;
    69 : 008a;
    70 : 0000;
    71 : 008a;
    72   : 0000;
    73 : 008a;
    74 : 0000;
    75 : 008a;
    76   : 0000;
    77 : 008a;
    78 : 0000;
    79 : 008a;
    80   : 0000;
    81 : 008a;
    82 : 0000;
    83 : 008a;
    84   : 0000;
    85 : 008a;
    86 : 0000;
    87 : 008a;
    88   : 0000;
    89 : 008a;
    90 : 0000;
    91 : 008a;
    92   : 0000;
    93 : 008a;
    94 : 0000;
    95 : 008a;
    96   : 0000;
    97 : 008a;
    98 : 0000;
    99 : 008a;
    100   : 0000;
    101 : 008a;
    102 : 0000;
    103 : 008a;
    104   : 0000;
    105 : 008a;
    106 : 0000;
    107 : 008a;
    108   : 0000;
    109 : 008a;
    110 : 0000;
    111 : 008a;
    112   : 0000;
    113 : 008a;
    114 : 0000;
    115 : 008a;
    116   : 0000;
    117 : 008a;
    118 : 0000;
    119 : 008a;
    120   : 0000;
    121 : 008a;
    122 : 0000;
    123 : 008a;
    124   : 0000;
    125 : 008a;
    126 : 0000;
    127 : 008a;
    128   : 0000;
    129 : 008a;
    130 : 0000;
    131 : 008a;
    132   : 0000;
    133 : 008a;
    134 : 0000;
    135 : 008a;
    136   : 0000;
    137 : 008a;
    138 : 0000;
    139 : 008a;
    140   : 0000;
    141 : 008a;
    142 : 0000;
    143 : 008a;
    144   : 0000;
    145 : 008a;
    146 : 0000;
    147 : 008a;
    148   : 0000;
    149 : 008a;
    150 : 0000;
    151 : 008a;
    152   : 0000;
    153 : 008a;
    154 : 0000;
    155 : 008a;
    156   : 0000;
    157 : 008a;
    158 : 0000;
    159 : 008a;
    160   : 0000;
    161 : 008a;
    162 : 0000;
    163 : 008a;
    164   : 0000;
    165 : 008a;
    166 : 0000;
    167 : 008a;
    168   : 0000;
    169 : 008a;
    170 : 0000;
    171 : 008a;
    172   : 0000;
    173 : 008a;
    174 : 0000;
    175 : 008a;
    176   : 0000;
    177 : 008a;
    178 : 0000;
    179 : 008a;
    180   : 0000;
    181 : 008a;
    182 : 0000;
    183 : 008a;
    184   : 0000;
    185 : 008a;
    186 : 0000;
    187 : 008a;
    188   : 0000;
    189 : 008a;
    190 : 0000;
    191 : 008a;
    192   : 0000;
    193 : 008a;
    194 : 0000;
    195 : 008a;
    196   : 0000;
    197 : 008a;
    198 : 0000;
    199 : 008a;
    200   : 0000;
    201 : 008a;
    202 : 0000;
    203 : 008a;
    204   : 0000;
    205 : 008a;
    206 : 0000;
    207 : 008a;
    208   : 0000;
    209 : 008a;
    210 : 0000;
    211 : 008a;
    212   : 0000;
    213 : 008a;
    214 : 0000;
    215 : 008a;
    216   : 0000;
    217 : 008a;
    218 : 0000;
    219 : 008a;
    220   : 0000;
    221 : 008a;
    222 : 0000;
    223 : 008a;
    224   : 0000;
    225 : 008a;
    226 : 0000;
    227 : 008a;
    228   : 0000;
    229 : 008a;
    230 : 0000;
    231 : 008a;
    232   : 0000;
    233 : 008a;
    234 : 0000;
    235 : 008a;
    236   : 0000;
    237 : 008a;
    238 : 0000;
    239 : 008a;
    240   : 0000;
    241 : 008a;
    242 : 0000;
    243 : 008a;
    244   : 0000;
    245 : 008a;
    246 : 0000;
    247 : 008a;
    248   : 0000;
    249 : 008a;
    250 : 0000;
    251 : 008a;
    252   : 0000;
    253 : 008a;
    254 : 0000;
    255 : 008a;
END;
