WIDTH=16;
DEPTH=256;
ADDRESS_RADIX=UNS;
DATA_RADIX=HEX;
CONTENT BEGIN
    0   : 0000;
    1 : 00a2;
    2 : 0000;
    3 : 00a2;
    4   : 0000;
    5 : 00a2;
    6 : 0000;
    7 : 00a2;
    8   : 0000;
    9 : 00a2;
    10 : 0000;
    11 : 00a2;
    12   : 0000;
    13 : 00a2;
    14 : 0000;
    15 : 00a2;
    16   : 0000;
    17 : 00a2;
    18 : 0000;
    19 : 00a2;
    20   : 0000;
    21 : 00a2;
    22 : 0000;
    23 : 00a2;
    24   : 0000;
    25 : 00a2;
    26 : 0000;
    27 : 00a2;
    28   : 0000;
    29 : 00a2;
    30 : 0000;
    31 : 00a2;
    32   : 0000;
    33 : 00a2;
    34 : 0000;
    35 : 00a2;
    36   : 0000;
    37 : 00a2;
    38 : 0000;
    39 : 00a2;
    40   : 0000;
    41 : 00a2;
    42 : 0000;
    43 : 00a2;
    44   : 0000;
    45 : 00a2;
    46 : 0000;
    47 : 00a2;
    48   : 0000;
    49 : 00a2;
    50 : 0000;
    51 : 00a2;
    52   : 0000;
    53 : 00a2;
    54 : 0000;
    55 : 00a2;
    56   : 0000;
    57 : 00a2;
    58 : 0000;
    59 : 00a2;
    60   : 0000;
    61 : 00a2;
    62 : 0000;
    63 : 00a2;
    64   : 0000;
    65 : 00a2;
    66 : 0000;
    67 : 00a2;
    68   : 0000;
    69 : 00a2;
    70 : 0000;
    71 : 00a2;
    72   : 0000;
    73 : 00a2;
    74 : 0000;
    75 : 00a2;
    76   : 0000;
    77 : 00a2;
    78 : 0000;
    79 : 00a2;
    80   : 0000;
    81 : 00a2;
    82 : 0000;
    83 : 00a2;
    84   : 0000;
    85 : 00a2;
    86 : 0000;
    87 : 00a2;
    88   : 0000;
    89 : 00a2;
    90 : 0000;
    91 : 00a2;
    92   : 0000;
    93 : 00a2;
    94 : 0000;
    95 : 00a2;
    96   : 0000;
    97 : 00a2;
    98 : 0000;
    99 : 00a2;
    100   : 0000;
    101 : 00a2;
    102 : 0000;
    103 : 00a2;
    104   : 0000;
    105 : 00a2;
    106 : 0000;
    107 : 00a2;
    108   : 0000;
    109 : 00a2;
    110 : 0000;
    111 : 00a2;
    112   : 0000;
    113 : 00a2;
    114 : 0000;
    115 : 00a2;
    116   : 0000;
    117 : 00a2;
    118 : 0000;
    119 : 00a2;
    120   : 0000;
    121 : 00a2;
    122 : 0000;
    123 : 00a2;
    124   : 0000;
    125 : 00a2;
    126 : 0000;
    127 : 00a2;
    128   : 0000;
    129 : 00a2;
    130 : 0000;
    131 : 00a2;
    132   : 0000;
    133 : 00a2;
    134 : 0000;
    135 : 00a2;
    136   : 0000;
    137 : 00a2;
    138 : 0000;
    139 : 00a2;
    140   : 0000;
    141 : 00a2;
    142 : 0000;
    143 : 00a2;
    144   : 0000;
    145 : 00a2;
    146 : 0000;
    147 : 00a2;
    148   : 0000;
    149 : 00a2;
    150 : 0000;
    151 : 00a2;
    152   : 0000;
    153 : 00a2;
    154 : 0000;
    155 : 00a2;
    156   : 0000;
    157 : 00a2;
    158 : 0000;
    159 : 00a2;
    160   : 0000;
    161 : 00a2;
    162 : 0000;
    163 : 00a2;
    164   : 0000;
    165 : 00a2;
    166 : 0000;
    167 : 00a2;
    168   : 0000;
    169 : 00a2;
    170 : 0000;
    171 : 00a2;
    172   : 0000;
    173 : 00a2;
    174 : 0000;
    175 : 00a2;
    176   : 0000;
    177 : 00a2;
    178 : 0000;
    179 : 00a2;
    180   : 0000;
    181 : 00a2;
    182 : 0000;
    183 : 00a2;
    184   : 0000;
    185 : 00a2;
    186 : 0000;
    187 : 00a2;
    188   : 0000;
    189 : 00a2;
    190 : 0000;
    191 : 00a2;
    192   : 0000;
    193 : 00a2;
    194 : 0000;
    195 : 00a2;
    196   : 0000;
    197 : 00a2;
    198 : 0000;
    199 : 00a2;
    200   : 0000;
    201 : 00a2;
    202 : 0000;
    203 : 00a2;
    204   : 0000;
    205 : 00a2;
    206 : 0000;
    207 : 00a2;
    208   : 0000;
    209 : 00a2;
    210 : 0000;
    211 : 00a2;
    212   : 0000;
    213 : 00a2;
    214 : 0000;
    215 : 00a2;
    216   : 0000;
    217 : 00a2;
    218 : 0000;
    219 : 00a2;
    220   : 0000;
    221 : 00a2;
    222 : 0000;
    223 : 00a2;
    224   : 0000;
    225 : 00a2;
    226 : 0000;
    227 : 00a2;
    228   : 0000;
    229 : 00a2;
    230 : 0000;
    231 : 00a2;
    232   : 0000;
    233 : 00a2;
    234 : 0000;
    235 : 00a2;
    236   : 0000;
    237 : 00a2;
    238 : 0000;
    239 : 00a2;
    240   : 0000;
    241 : 00a2;
    242 : 0000;
    243 : 00a2;
    244   : 0000;
    245 : 00a2;
    246 : 0000;
    247 : 00a2;
    248   : 0000;
    249 : 00a2;
    250 : 0000;
    251 : 00a2;
    252   : 0000;
    253 : 00a2;
    254 : 0000;
    255 : 00a2;
END;
