WIDTH=16;
DEPTH=256;
ADDRESS_RADIX=UNS;
DATA_RADIX=HEX;
CONTENT BEGIN
    0   : 0000;
    1 : 0092;
    2 : 0000;
    3 : 0092;
    4   : 0000;
    5 : 0092;
    6 : 0000;
    7 : 0092;
    8   : 0000;
    9 : 0092;
    10 : 0000;
    11 : 0092;
    12   : 0000;
    13 : 0092;
    14 : 0000;
    15 : 0092;
    16   : 0000;
    17 : 0092;
    18 : 0000;
    19 : 0092;
    20   : 0000;
    21 : 0092;
    22 : 0000;
    23 : 0092;
    24   : 0000;
    25 : 0092;
    26 : 0000;
    27 : 0092;
    28   : 0000;
    29 : 0092;
    30 : 0000;
    31 : 0092;
    32   : 0000;
    33 : 0092;
    34 : 0000;
    35 : 0092;
    36   : 0000;
    37 : 0092;
    38 : 0000;
    39 : 0092;
    40   : 0000;
    41 : 0092;
    42 : 0000;
    43 : 0092;
    44   : 0000;
    45 : 0092;
    46 : 0000;
    47 : 0092;
    48   : 0000;
    49 : 0092;
    50 : 0000;
    51 : 0092;
    52   : 0000;
    53 : 0092;
    54 : 0000;
    55 : 0092;
    56   : 0000;
    57 : 0092;
    58 : 0000;
    59 : 0092;
    60   : 0000;
    61 : 0092;
    62 : 0000;
    63 : 0092;
    64   : 0000;
    65 : 0092;
    66 : 0000;
    67 : 0092;
    68   : 0000;
    69 : 0092;
    70 : 0000;
    71 : 0092;
    72   : 0000;
    73 : 0092;
    74 : 0000;
    75 : 0092;
    76   : 0000;
    77 : 0092;
    78 : 0000;
    79 : 0092;
    80   : 0000;
    81 : 0092;
    82 : 0000;
    83 : 0092;
    84   : 0000;
    85 : 0092;
    86 : 0000;
    87 : 0092;
    88   : 0000;
    89 : 0092;
    90 : 0000;
    91 : 0092;
    92   : 0000;
    93 : 0092;
    94 : 0000;
    95 : 0092;
    96   : 0000;
    97 : 0092;
    98 : 0000;
    99 : 0092;
    100   : 0000;
    101 : 0092;
    102 : 0000;
    103 : 0092;
    104   : 0000;
    105 : 0092;
    106 : 0000;
    107 : 0092;
    108   : 0000;
    109 : 0092;
    110 : 0000;
    111 : 0092;
    112   : 0000;
    113 : 0092;
    114 : 0000;
    115 : 0092;
    116   : 0000;
    117 : 0092;
    118 : 0000;
    119 : 0092;
    120   : 0000;
    121 : 0092;
    122 : 0000;
    123 : 0092;
    124   : 0000;
    125 : 0092;
    126 : 0000;
    127 : 0092;
    128   : 0000;
    129 : 0092;
    130 : 0000;
    131 : 0092;
    132   : 0000;
    133 : 0092;
    134 : 0000;
    135 : 0092;
    136   : 0000;
    137 : 0092;
    138 : 0000;
    139 : 0092;
    140   : 0000;
    141 : 0092;
    142 : 0000;
    143 : 0092;
    144   : 0000;
    145 : 0092;
    146 : 0000;
    147 : 0092;
    148   : 0000;
    149 : 0092;
    150 : 0000;
    151 : 0092;
    152   : 0000;
    153 : 0092;
    154 : 0000;
    155 : 0092;
    156   : 0000;
    157 : 0092;
    158 : 0000;
    159 : 0092;
    160   : 0000;
    161 : 0092;
    162 : 0000;
    163 : 0092;
    164   : 0000;
    165 : 0092;
    166 : 0000;
    167 : 0092;
    168   : 0000;
    169 : 0092;
    170 : 0000;
    171 : 0092;
    172   : 0000;
    173 : 0092;
    174 : 0000;
    175 : 0092;
    176   : 0000;
    177 : 0092;
    178 : 0000;
    179 : 0092;
    180   : 0000;
    181 : 0092;
    182 : 0000;
    183 : 0092;
    184   : 0000;
    185 : 0092;
    186 : 0000;
    187 : 0092;
    188   : 0000;
    189 : 0092;
    190 : 0000;
    191 : 0092;
    192   : 0000;
    193 : 0092;
    194 : 0000;
    195 : 0092;
    196   : 0000;
    197 : 0092;
    198 : 0000;
    199 : 0092;
    200   : 0000;
    201 : 0092;
    202 : 0000;
    203 : 0092;
    204   : 0000;
    205 : 0092;
    206 : 0000;
    207 : 0092;
    208   : 0000;
    209 : 0092;
    210 : 0000;
    211 : 0092;
    212   : 0000;
    213 : 0092;
    214 : 0000;
    215 : 0092;
    216   : 0000;
    217 : 0092;
    218 : 0000;
    219 : 0092;
    220   : 0000;
    221 : 0092;
    222 : 0000;
    223 : 0092;
    224   : 0000;
    225 : 0092;
    226 : 0000;
    227 : 0092;
    228   : 0000;
    229 : 0092;
    230 : 0000;
    231 : 0092;
    232   : 0000;
    233 : 0092;
    234 : 0000;
    235 : 0092;
    236   : 0000;
    237 : 0092;
    238 : 0000;
    239 : 0092;
    240   : 0000;
    241 : 0092;
    242 : 0000;
    243 : 0092;
    244   : 0000;
    245 : 0092;
    246 : 0000;
    247 : 0092;
    248   : 0000;
    249 : 0092;
    250 : 0000;
    251 : 0092;
    252   : 0000;
    253 : 0092;
    254 : 0000;
    255 : 0092;
END;
