WIDTH=16;
DEPTH=256;
ADDRESS_RADIX=UNS;
DATA_RADIX=HEX;
CONTENT BEGIN
    0   : 0000;
    1 : 0094;
    2 : 0000;
    3 : 0094;
    4   : 0000;
    5 : 0094;
    6 : 0000;
    7 : 0094;
    8   : 0000;
    9 : 0094;
    10 : 0000;
    11 : 0094;
    12   : 0000;
    13 : 0094;
    14 : 0000;
    15 : 0094;
    16   : 0000;
    17 : 0094;
    18 : 0000;
    19 : 0094;
    20   : 0000;
    21 : 0094;
    22 : 0000;
    23 : 0094;
    24   : 0000;
    25 : 0094;
    26 : 0000;
    27 : 0094;
    28   : 0000;
    29 : 0094;
    30 : 0000;
    31 : 0094;
    32   : 0000;
    33 : 0094;
    34 : 0000;
    35 : 0094;
    36   : 0000;
    37 : 0094;
    38 : 0000;
    39 : 0094;
    40   : 0000;
    41 : 0094;
    42 : 0000;
    43 : 0094;
    44   : 0000;
    45 : 0094;
    46 : 0000;
    47 : 0094;
    48   : 0000;
    49 : 0094;
    50 : 0000;
    51 : 0094;
    52   : 0000;
    53 : 0094;
    54 : 0000;
    55 : 0094;
    56   : 0000;
    57 : 0094;
    58 : 0000;
    59 : 0094;
    60   : 0000;
    61 : 0094;
    62 : 0000;
    63 : 0094;
    64   : 0000;
    65 : 0094;
    66 : 0000;
    67 : 0094;
    68   : 0000;
    69 : 0094;
    70 : 0000;
    71 : 0094;
    72   : 0000;
    73 : 0094;
    74 : 0000;
    75 : 0094;
    76   : 0000;
    77 : 0094;
    78 : 0000;
    79 : 0094;
    80   : 0000;
    81 : 0094;
    82 : 0000;
    83 : 0094;
    84   : 0000;
    85 : 0094;
    86 : 0000;
    87 : 0094;
    88   : 0000;
    89 : 0094;
    90 : 0000;
    91 : 0094;
    92   : 0000;
    93 : 0094;
    94 : 0000;
    95 : 0094;
    96   : 0000;
    97 : 0094;
    98 : 0000;
    99 : 0094;
    100   : 0000;
    101 : 0094;
    102 : 0000;
    103 : 0094;
    104   : 0000;
    105 : 0094;
    106 : 0000;
    107 : 0094;
    108   : 0000;
    109 : 0094;
    110 : 0000;
    111 : 0094;
    112   : 0000;
    113 : 0094;
    114 : 0000;
    115 : 0094;
    116   : 0000;
    117 : 0094;
    118 : 0000;
    119 : 0094;
    120   : 0000;
    121 : 0094;
    122 : 0000;
    123 : 0094;
    124   : 0000;
    125 : 0094;
    126 : 0000;
    127 : 0094;
    128   : 0000;
    129 : 0094;
    130 : 0000;
    131 : 0094;
    132   : 0000;
    133 : 0094;
    134 : 0000;
    135 : 0094;
    136   : 0000;
    137 : 0094;
    138 : 0000;
    139 : 0094;
    140   : 0000;
    141 : 0094;
    142 : 0000;
    143 : 0094;
    144   : 0000;
    145 : 0094;
    146 : 0000;
    147 : 0094;
    148   : 0000;
    149 : 0094;
    150 : 0000;
    151 : 0094;
    152   : 0000;
    153 : 0094;
    154 : 0000;
    155 : 0094;
    156   : 0000;
    157 : 0094;
    158 : 0000;
    159 : 0094;
    160   : 0000;
    161 : 0094;
    162 : 0000;
    163 : 0094;
    164   : 0000;
    165 : 0094;
    166 : 0000;
    167 : 0094;
    168   : 0000;
    169 : 0094;
    170 : 0000;
    171 : 0094;
    172   : 0000;
    173 : 0094;
    174 : 0000;
    175 : 0094;
    176   : 0000;
    177 : 0094;
    178 : 0000;
    179 : 0094;
    180   : 0000;
    181 : 0094;
    182 : 0000;
    183 : 0094;
    184   : 0000;
    185 : 0094;
    186 : 0000;
    187 : 0094;
    188   : 0000;
    189 : 0094;
    190 : 0000;
    191 : 0094;
    192   : 0000;
    193 : 0094;
    194 : 0000;
    195 : 0094;
    196   : 0000;
    197 : 0094;
    198 : 0000;
    199 : 0094;
    200   : 0000;
    201 : 0094;
    202 : 0000;
    203 : 0094;
    204   : 0000;
    205 : 0094;
    206 : 0000;
    207 : 0094;
    208   : 0000;
    209 : 0094;
    210 : 0000;
    211 : 0094;
    212   : 0000;
    213 : 0094;
    214 : 0000;
    215 : 0094;
    216   : 0000;
    217 : 0094;
    218 : 0000;
    219 : 0094;
    220   : 0000;
    221 : 0094;
    222 : 0000;
    223 : 0094;
    224   : 0000;
    225 : 0094;
    226 : 0000;
    227 : 0094;
    228   : 0000;
    229 : 0094;
    230 : 0000;
    231 : 0094;
    232   : 0000;
    233 : 0094;
    234 : 0000;
    235 : 0094;
    236   : 0000;
    237 : 0094;
    238 : 0000;
    239 : 0094;
    240   : 0000;
    241 : 0094;
    242 : 0000;
    243 : 0094;
    244   : 0000;
    245 : 0094;
    246 : 0000;
    247 : 0094;
    248   : 0000;
    249 : 0094;
    250 : 0000;
    251 : 0094;
    252   : 0000;
    253 : 0094;
    254 : 0000;
    255 : 0094;
END;
