WIDTH=16;
DEPTH=256;
ADDRESS_RADIX=UNS;
DATA_RADIX=HEX;
CONTENT BEGIN
    0   : 0000;
    1 : 00ea;
    2 : 0000;
    3 : 00ea;
    4   : 0000;
    5 : 00ea;
    6 : 0000;
    7 : 00ea;
    8   : 0000;
    9 : 00ea;
    10 : 0000;
    11 : 00ea;
    12   : 0000;
    13 : 00ea;
    14 : 0000;
    15 : 00ea;
    16   : 0000;
    17 : 00ea;
    18 : 0000;
    19 : 00ea;
    20   : 0000;
    21 : 00ea;
    22 : 0000;
    23 : 00ea;
    24   : 0000;
    25 : 00ea;
    26 : 0000;
    27 : 00ea;
    28   : 0000;
    29 : 00ea;
    30 : 0000;
    31 : 00ea;
    32   : 0000;
    33 : 00ea;
    34 : 0000;
    35 : 00ea;
    36   : 0000;
    37 : 00ea;
    38 : 0000;
    39 : 00ea;
    40   : 0000;
    41 : 00ea;
    42 : 0000;
    43 : 00ea;
    44   : 0000;
    45 : 00ea;
    46 : 0000;
    47 : 00ea;
    48   : 0000;
    49 : 00ea;
    50 : 0000;
    51 : 00ea;
    52   : 0000;
    53 : 00ea;
    54 : 0000;
    55 : 00ea;
    56   : 0000;
    57 : 00ea;
    58 : 0000;
    59 : 00ea;
    60   : 0000;
    61 : 00ea;
    62 : 0000;
    63 : 00ea;
    64   : 0000;
    65 : 00ea;
    66 : 0000;
    67 : 00ea;
    68   : 0000;
    69 : 00ea;
    70 : 0000;
    71 : 00ea;
    72   : 0000;
    73 : 00ea;
    74 : 0000;
    75 : 00ea;
    76   : 0000;
    77 : 00ea;
    78 : 0000;
    79 : 00ea;
    80   : 0000;
    81 : 00ea;
    82 : 0000;
    83 : 00ea;
    84   : 0000;
    85 : 00ea;
    86 : 0000;
    87 : 00ea;
    88   : 0000;
    89 : 00ea;
    90 : 0000;
    91 : 00ea;
    92   : 0000;
    93 : 00ea;
    94 : 0000;
    95 : 00ea;
    96   : 0000;
    97 : 00ea;
    98 : 0000;
    99 : 00ea;
    100   : 0000;
    101 : 00ea;
    102 : 0000;
    103 : 00ea;
    104   : 0000;
    105 : 00ea;
    106 : 0000;
    107 : 00ea;
    108   : 0000;
    109 : 00ea;
    110 : 0000;
    111 : 00ea;
    112   : 0000;
    113 : 00ea;
    114 : 0000;
    115 : 00ea;
    116   : 0000;
    117 : 00ea;
    118 : 0000;
    119 : 00ea;
    120   : 0000;
    121 : 00ea;
    122 : 0000;
    123 : 00ea;
    124   : 0000;
    125 : 00ea;
    126 : 0000;
    127 : 00ea;
    128   : 0000;
    129 : 00ea;
    130 : 0000;
    131 : 00ea;
    132   : 0000;
    133 : 00ea;
    134 : 0000;
    135 : 00ea;
    136   : 0000;
    137 : 00ea;
    138 : 0000;
    139 : 00ea;
    140   : 0000;
    141 : 00ea;
    142 : 0000;
    143 : 00ea;
    144   : 0000;
    145 : 00ea;
    146 : 0000;
    147 : 00ea;
    148   : 0000;
    149 : 00ea;
    150 : 0000;
    151 : 00ea;
    152   : 0000;
    153 : 00ea;
    154 : 0000;
    155 : 00ea;
    156   : 0000;
    157 : 00ea;
    158 : 0000;
    159 : 00ea;
    160   : 0000;
    161 : 00ea;
    162 : 0000;
    163 : 00ea;
    164   : 0000;
    165 : 00ea;
    166 : 0000;
    167 : 00ea;
    168   : 0000;
    169 : 00ea;
    170 : 0000;
    171 : 00ea;
    172   : 0000;
    173 : 00ea;
    174 : 0000;
    175 : 00ea;
    176   : 0000;
    177 : 00ea;
    178 : 0000;
    179 : 00ea;
    180   : 0000;
    181 : 00ea;
    182 : 0000;
    183 : 00ea;
    184   : 0000;
    185 : 00ea;
    186 : 0000;
    187 : 00ea;
    188   : 0000;
    189 : 00ea;
    190 : 0000;
    191 : 00ea;
    192   : 0000;
    193 : 00ea;
    194 : 0000;
    195 : 00ea;
    196   : 0000;
    197 : 00ea;
    198 : 0000;
    199 : 00ea;
    200   : 0000;
    201 : 00ea;
    202 : 0000;
    203 : 00ea;
    204   : 0000;
    205 : 00ea;
    206 : 0000;
    207 : 00ea;
    208   : 0000;
    209 : 00ea;
    210 : 0000;
    211 : 00ea;
    212   : 0000;
    213 : 00ea;
    214 : 0000;
    215 : 00ea;
    216   : 0000;
    217 : 00ea;
    218 : 0000;
    219 : 00ea;
    220   : 0000;
    221 : 00ea;
    222 : 0000;
    223 : 00ea;
    224   : 0000;
    225 : 00ea;
    226 : 0000;
    227 : 00ea;
    228   : 0000;
    229 : 00ea;
    230 : 0000;
    231 : 00ea;
    232   : 0000;
    233 : 00ea;
    234 : 0000;
    235 : 00ea;
    236   : 0000;
    237 : 00ea;
    238 : 0000;
    239 : 00ea;
    240   : 0000;
    241 : 00ea;
    242 : 0000;
    243 : 00ea;
    244   : 0000;
    245 : 00ea;
    246 : 0000;
    247 : 00ea;
    248   : 0000;
    249 : 00ea;
    250 : 0000;
    251 : 00ea;
    252   : 0000;
    253 : 00ea;
    254 : 0000;
    255 : 00ea;
END;
