WIDTH=16;
DEPTH=256;
ADDRESS_RADIX=UNS;
DATA_RADIX=HEX;
CONTENT BEGIN
    0   : 0000;
    1 : 00d2;
    2 : 0000;
    3 : 00d2;
    4   : 0000;
    5 : 00d2;
    6 : 0000;
    7 : 00d2;
    8   : 0000;
    9 : 00d2;
    10 : 0000;
    11 : 00d2;
    12   : 0000;
    13 : 00d2;
    14 : 0000;
    15 : 00d2;
    16   : 0000;
    17 : 00d2;
    18 : 0000;
    19 : 00d2;
    20   : 0000;
    21 : 00d2;
    22 : 0000;
    23 : 00d2;
    24   : 0000;
    25 : 00d2;
    26 : 0000;
    27 : 00d2;
    28   : 0000;
    29 : 00d2;
    30 : 0000;
    31 : 00d2;
    32   : 0000;
    33 : 00d2;
    34 : 0000;
    35 : 00d2;
    36   : 0000;
    37 : 00d2;
    38 : 0000;
    39 : 00d2;
    40   : 0000;
    41 : 00d2;
    42 : 0000;
    43 : 00d2;
    44   : 0000;
    45 : 00d2;
    46 : 0000;
    47 : 00d2;
    48   : 0000;
    49 : 00d2;
    50 : 0000;
    51 : 00d2;
    52   : 0000;
    53 : 00d2;
    54 : 0000;
    55 : 00d2;
    56   : 0000;
    57 : 00d2;
    58 : 0000;
    59 : 00d2;
    60   : 0000;
    61 : 00d2;
    62 : 0000;
    63 : 00d2;
    64   : 0000;
    65 : 00d2;
    66 : 0000;
    67 : 00d2;
    68   : 0000;
    69 : 00d2;
    70 : 0000;
    71 : 00d2;
    72   : 0000;
    73 : 00d2;
    74 : 0000;
    75 : 00d2;
    76   : 0000;
    77 : 00d2;
    78 : 0000;
    79 : 00d2;
    80   : 0000;
    81 : 00d2;
    82 : 0000;
    83 : 00d2;
    84   : 0000;
    85 : 00d2;
    86 : 0000;
    87 : 00d2;
    88   : 0000;
    89 : 00d2;
    90 : 0000;
    91 : 00d2;
    92   : 0000;
    93 : 00d2;
    94 : 0000;
    95 : 00d2;
    96   : 0000;
    97 : 00d2;
    98 : 0000;
    99 : 00d2;
    100   : 0000;
    101 : 00d2;
    102 : 0000;
    103 : 00d2;
    104   : 0000;
    105 : 00d2;
    106 : 0000;
    107 : 00d2;
    108   : 0000;
    109 : 00d2;
    110 : 0000;
    111 : 00d2;
    112   : 0000;
    113 : 00d2;
    114 : 0000;
    115 : 00d2;
    116   : 0000;
    117 : 00d2;
    118 : 0000;
    119 : 00d2;
    120   : 0000;
    121 : 00d2;
    122 : 0000;
    123 : 00d2;
    124   : 0000;
    125 : 00d2;
    126 : 0000;
    127 : 00d2;
    128   : 0000;
    129 : 00d2;
    130 : 0000;
    131 : 00d2;
    132   : 0000;
    133 : 00d2;
    134 : 0000;
    135 : 00d2;
    136   : 0000;
    137 : 00d2;
    138 : 0000;
    139 : 00d2;
    140   : 0000;
    141 : 00d2;
    142 : 0000;
    143 : 00d2;
    144   : 0000;
    145 : 00d2;
    146 : 0000;
    147 : 00d2;
    148   : 0000;
    149 : 00d2;
    150 : 0000;
    151 : 00d2;
    152   : 0000;
    153 : 00d2;
    154 : 0000;
    155 : 00d2;
    156   : 0000;
    157 : 00d2;
    158 : 0000;
    159 : 00d2;
    160   : 0000;
    161 : 00d2;
    162 : 0000;
    163 : 00d2;
    164   : 0000;
    165 : 00d2;
    166 : 0000;
    167 : 00d2;
    168   : 0000;
    169 : 00d2;
    170 : 0000;
    171 : 00d2;
    172   : 0000;
    173 : 00d2;
    174 : 0000;
    175 : 00d2;
    176   : 0000;
    177 : 00d2;
    178 : 0000;
    179 : 00d2;
    180   : 0000;
    181 : 00d2;
    182 : 0000;
    183 : 00d2;
    184   : 0000;
    185 : 00d2;
    186 : 0000;
    187 : 00d2;
    188   : 0000;
    189 : 00d2;
    190 : 0000;
    191 : 00d2;
    192   : 0000;
    193 : 00d2;
    194 : 0000;
    195 : 00d2;
    196   : 0000;
    197 : 00d2;
    198 : 0000;
    199 : 00d2;
    200   : 0000;
    201 : 00d2;
    202 : 0000;
    203 : 00d2;
    204   : 0000;
    205 : 00d2;
    206 : 0000;
    207 : 00d2;
    208   : 0000;
    209 : 00d2;
    210 : 0000;
    211 : 00d2;
    212   : 0000;
    213 : 00d2;
    214 : 0000;
    215 : 00d2;
    216   : 0000;
    217 : 00d2;
    218 : 0000;
    219 : 00d2;
    220   : 0000;
    221 : 00d2;
    222 : 0000;
    223 : 00d2;
    224   : 0000;
    225 : 00d2;
    226 : 0000;
    227 : 00d2;
    228   : 0000;
    229 : 00d2;
    230 : 0000;
    231 : 00d2;
    232   : 0000;
    233 : 00d2;
    234 : 0000;
    235 : 00d2;
    236   : 0000;
    237 : 00d2;
    238 : 0000;
    239 : 00d2;
    240   : 0000;
    241 : 00d2;
    242 : 0000;
    243 : 00d2;
    244   : 0000;
    245 : 00d2;
    246 : 0000;
    247 : 00d2;
    248   : 0000;
    249 : 00d2;
    250 : 0000;
    251 : 00d2;
    252   : 0000;
    253 : 00d2;
    254 : 0000;
    255 : 00d2;
END;
