WIDTH=16;
DEPTH=256;
ADDRESS_RADIX=UNS;
DATA_RADIX=HEX;
CONTENT BEGIN
    0   : 0000;
    1 : 00ae;
    2 : 0000;
    3 : 00ae;
    4   : 0000;
    5 : 00ae;
    6 : 0000;
    7 : 00ae;
    8   : 0000;
    9 : 00ae;
    10 : 0000;
    11 : 00ae;
    12   : 0000;
    13 : 00ae;
    14 : 0000;
    15 : 00ae;
    16   : 0000;
    17 : 00ae;
    18 : 0000;
    19 : 00ae;
    20   : 0000;
    21 : 00ae;
    22 : 0000;
    23 : 00ae;
    24   : 0000;
    25 : 00ae;
    26 : 0000;
    27 : 00ae;
    28   : 0000;
    29 : 00ae;
    30 : 0000;
    31 : 00ae;
    32   : 0000;
    33 : 00ae;
    34 : 0000;
    35 : 00ae;
    36   : 0000;
    37 : 00ae;
    38 : 0000;
    39 : 00ae;
    40   : 0000;
    41 : 00ae;
    42 : 0000;
    43 : 00ae;
    44   : 0000;
    45 : 00ae;
    46 : 0000;
    47 : 00ae;
    48   : 0000;
    49 : 00ae;
    50 : 0000;
    51 : 00ae;
    52   : 0000;
    53 : 00ae;
    54 : 0000;
    55 : 00ae;
    56   : 0000;
    57 : 00ae;
    58 : 0000;
    59 : 00ae;
    60   : 0000;
    61 : 00ae;
    62 : 0000;
    63 : 00ae;
    64   : 0000;
    65 : 00ae;
    66 : 0000;
    67 : 00ae;
    68   : 0000;
    69 : 00ae;
    70 : 0000;
    71 : 00ae;
    72   : 0000;
    73 : 00ae;
    74 : 0000;
    75 : 00ae;
    76   : 0000;
    77 : 00ae;
    78 : 0000;
    79 : 00ae;
    80   : 0000;
    81 : 00ae;
    82 : 0000;
    83 : 00ae;
    84   : 0000;
    85 : 00ae;
    86 : 0000;
    87 : 00ae;
    88   : 0000;
    89 : 00ae;
    90 : 0000;
    91 : 00ae;
    92   : 0000;
    93 : 00ae;
    94 : 0000;
    95 : 00ae;
    96   : 0000;
    97 : 00ae;
    98 : 0000;
    99 : 00ae;
    100   : 0000;
    101 : 00ae;
    102 : 0000;
    103 : 00ae;
    104   : 0000;
    105 : 00ae;
    106 : 0000;
    107 : 00ae;
    108   : 0000;
    109 : 00ae;
    110 : 0000;
    111 : 00ae;
    112   : 0000;
    113 : 00ae;
    114 : 0000;
    115 : 00ae;
    116   : 0000;
    117 : 00ae;
    118 : 0000;
    119 : 00ae;
    120   : 0000;
    121 : 00ae;
    122 : 0000;
    123 : 00ae;
    124   : 0000;
    125 : 00ae;
    126 : 0000;
    127 : 00ae;
    128   : 0000;
    129 : 00ae;
    130 : 0000;
    131 : 00ae;
    132   : 0000;
    133 : 00ae;
    134 : 0000;
    135 : 00ae;
    136   : 0000;
    137 : 00ae;
    138 : 0000;
    139 : 00ae;
    140   : 0000;
    141 : 00ae;
    142 : 0000;
    143 : 00ae;
    144   : 0000;
    145 : 00ae;
    146 : 0000;
    147 : 00ae;
    148   : 0000;
    149 : 00ae;
    150 : 0000;
    151 : 00ae;
    152   : 0000;
    153 : 00ae;
    154 : 0000;
    155 : 00ae;
    156   : 0000;
    157 : 00ae;
    158 : 0000;
    159 : 00ae;
    160   : 0000;
    161 : 00ae;
    162 : 0000;
    163 : 00ae;
    164   : 0000;
    165 : 00ae;
    166 : 0000;
    167 : 00ae;
    168   : 0000;
    169 : 00ae;
    170 : 0000;
    171 : 00ae;
    172   : 0000;
    173 : 00ae;
    174 : 0000;
    175 : 00ae;
    176   : 0000;
    177 : 00ae;
    178 : 0000;
    179 : 00ae;
    180   : 0000;
    181 : 00ae;
    182 : 0000;
    183 : 00ae;
    184   : 0000;
    185 : 00ae;
    186 : 0000;
    187 : 00ae;
    188   : 0000;
    189 : 00ae;
    190 : 0000;
    191 : 00ae;
    192   : 0000;
    193 : 00ae;
    194 : 0000;
    195 : 00ae;
    196   : 0000;
    197 : 00ae;
    198 : 0000;
    199 : 00ae;
    200   : 0000;
    201 : 00ae;
    202 : 0000;
    203 : 00ae;
    204   : 0000;
    205 : 00ae;
    206 : 0000;
    207 : 00ae;
    208   : 0000;
    209 : 00ae;
    210 : 0000;
    211 : 00ae;
    212   : 0000;
    213 : 00ae;
    214 : 0000;
    215 : 00ae;
    216   : 0000;
    217 : 00ae;
    218 : 0000;
    219 : 00ae;
    220   : 0000;
    221 : 00ae;
    222 : 0000;
    223 : 00ae;
    224   : 0000;
    225 : 00ae;
    226 : 0000;
    227 : 00ae;
    228   : 0000;
    229 : 00ae;
    230 : 0000;
    231 : 00ae;
    232   : 0000;
    233 : 00ae;
    234 : 0000;
    235 : 00ae;
    236   : 0000;
    237 : 00ae;
    238 : 0000;
    239 : 00ae;
    240   : 0000;
    241 : 00ae;
    242 : 0000;
    243 : 00ae;
    244   : 0000;
    245 : 00ae;
    246 : 0000;
    247 : 00ae;
    248   : 0000;
    249 : 00ae;
    250 : 0000;
    251 : 00ae;
    252   : 0000;
    253 : 00ae;
    254 : 0000;
    255 : 00ae;
END;
