WIDTH=16;
DEPTH=256;
ADDRESS_RADIX=UNS;
DATA_RADIX=HEX;
CONTENT BEGIN
    0   : 0000;
    1 : 00ca;
    2 : 0000;
    3 : 00ca;
    4   : 0000;
    5 : 00ca;
    6 : 0000;
    7 : 00ca;
    8   : 0000;
    9 : 00ca;
    10 : 0000;
    11 : 00ca;
    12   : 0000;
    13 : 00ca;
    14 : 0000;
    15 : 00ca;
    16   : 0000;
    17 : 00ca;
    18 : 0000;
    19 : 00ca;
    20   : 0000;
    21 : 00ca;
    22 : 0000;
    23 : 00ca;
    24   : 0000;
    25 : 00ca;
    26 : 0000;
    27 : 00ca;
    28   : 0000;
    29 : 00ca;
    30 : 0000;
    31 : 00ca;
    32   : 0000;
    33 : 00ca;
    34 : 0000;
    35 : 00ca;
    36   : 0000;
    37 : 00ca;
    38 : 0000;
    39 : 00ca;
    40   : 0000;
    41 : 00ca;
    42 : 0000;
    43 : 00ca;
    44   : 0000;
    45 : 00ca;
    46 : 0000;
    47 : 00ca;
    48   : 0000;
    49 : 00ca;
    50 : 0000;
    51 : 00ca;
    52   : 0000;
    53 : 00ca;
    54 : 0000;
    55 : 00ca;
    56   : 0000;
    57 : 00ca;
    58 : 0000;
    59 : 00ca;
    60   : 0000;
    61 : 00ca;
    62 : 0000;
    63 : 00ca;
    64   : 0000;
    65 : 00ca;
    66 : 0000;
    67 : 00ca;
    68   : 0000;
    69 : 00ca;
    70 : 0000;
    71 : 00ca;
    72   : 0000;
    73 : 00ca;
    74 : 0000;
    75 : 00ca;
    76   : 0000;
    77 : 00ca;
    78 : 0000;
    79 : 00ca;
    80   : 0000;
    81 : 00ca;
    82 : 0000;
    83 : 00ca;
    84   : 0000;
    85 : 00ca;
    86 : 0000;
    87 : 00ca;
    88   : 0000;
    89 : 00ca;
    90 : 0000;
    91 : 00ca;
    92   : 0000;
    93 : 00ca;
    94 : 0000;
    95 : 00ca;
    96   : 0000;
    97 : 00ca;
    98 : 0000;
    99 : 00ca;
    100   : 0000;
    101 : 00ca;
    102 : 0000;
    103 : 00ca;
    104   : 0000;
    105 : 00ca;
    106 : 0000;
    107 : 00ca;
    108   : 0000;
    109 : 00ca;
    110 : 0000;
    111 : 00ca;
    112   : 0000;
    113 : 00ca;
    114 : 0000;
    115 : 00ca;
    116   : 0000;
    117 : 00ca;
    118 : 0000;
    119 : 00ca;
    120   : 0000;
    121 : 00ca;
    122 : 0000;
    123 : 00ca;
    124   : 0000;
    125 : 00ca;
    126 : 0000;
    127 : 00ca;
    128   : 0000;
    129 : 00ca;
    130 : 0000;
    131 : 00ca;
    132   : 0000;
    133 : 00ca;
    134 : 0000;
    135 : 00ca;
    136   : 0000;
    137 : 00ca;
    138 : 0000;
    139 : 00ca;
    140   : 0000;
    141 : 00ca;
    142 : 0000;
    143 : 00ca;
    144   : 0000;
    145 : 00ca;
    146 : 0000;
    147 : 00ca;
    148   : 0000;
    149 : 00ca;
    150 : 0000;
    151 : 00ca;
    152   : 0000;
    153 : 00ca;
    154 : 0000;
    155 : 00ca;
    156   : 0000;
    157 : 00ca;
    158 : 0000;
    159 : 00ca;
    160   : 0000;
    161 : 00ca;
    162 : 0000;
    163 : 00ca;
    164   : 0000;
    165 : 00ca;
    166 : 0000;
    167 : 00ca;
    168   : 0000;
    169 : 00ca;
    170 : 0000;
    171 : 00ca;
    172   : 0000;
    173 : 00ca;
    174 : 0000;
    175 : 00ca;
    176   : 0000;
    177 : 00ca;
    178 : 0000;
    179 : 00ca;
    180   : 0000;
    181 : 00ca;
    182 : 0000;
    183 : 00ca;
    184   : 0000;
    185 : 00ca;
    186 : 0000;
    187 : 00ca;
    188   : 0000;
    189 : 00ca;
    190 : 0000;
    191 : 00ca;
    192   : 0000;
    193 : 00ca;
    194 : 0000;
    195 : 00ca;
    196   : 0000;
    197 : 00ca;
    198 : 0000;
    199 : 00ca;
    200   : 0000;
    201 : 00ca;
    202 : 0000;
    203 : 00ca;
    204   : 0000;
    205 : 00ca;
    206 : 0000;
    207 : 00ca;
    208   : 0000;
    209 : 00ca;
    210 : 0000;
    211 : 00ca;
    212   : 0000;
    213 : 00ca;
    214 : 0000;
    215 : 00ca;
    216   : 0000;
    217 : 00ca;
    218 : 0000;
    219 : 00ca;
    220   : 0000;
    221 : 00ca;
    222 : 0000;
    223 : 00ca;
    224   : 0000;
    225 : 00ca;
    226 : 0000;
    227 : 00ca;
    228   : 0000;
    229 : 00ca;
    230 : 0000;
    231 : 00ca;
    232   : 0000;
    233 : 00ca;
    234 : 0000;
    235 : 00ca;
    236   : 0000;
    237 : 00ca;
    238 : 0000;
    239 : 00ca;
    240   : 0000;
    241 : 00ca;
    242 : 0000;
    243 : 00ca;
    244   : 0000;
    245 : 00ca;
    246 : 0000;
    247 : 00ca;
    248   : 0000;
    249 : 00ca;
    250 : 0000;
    251 : 00ca;
    252   : 0000;
    253 : 00ca;
    254 : 0000;
    255 : 00ca;
END;
