WIDTH=16;
DEPTH=256;
ADDRESS_RADIX=UNS;
DATA_RADIX=HEX;
CONTENT BEGIN
    0   : 0000;
    1 : 00a4;
    2 : 0000;
    3 : 00a4;
    4   : 0000;
    5 : 00a4;
    6 : 0000;
    7 : 00a4;
    8   : 0000;
    9 : 00a4;
    10 : 0000;
    11 : 00a4;
    12   : 0000;
    13 : 00a4;
    14 : 0000;
    15 : 00a4;
    16   : 0000;
    17 : 00a4;
    18 : 0000;
    19 : 00a4;
    20   : 0000;
    21 : 00a4;
    22 : 0000;
    23 : 00a4;
    24   : 0000;
    25 : 00a4;
    26 : 0000;
    27 : 00a4;
    28   : 0000;
    29 : 00a4;
    30 : 0000;
    31 : 00a4;
    32   : 0000;
    33 : 00a4;
    34 : 0000;
    35 : 00a4;
    36   : 0000;
    37 : 00a4;
    38 : 0000;
    39 : 00a4;
    40   : 0000;
    41 : 00a4;
    42 : 0000;
    43 : 00a4;
    44   : 0000;
    45 : 00a4;
    46 : 0000;
    47 : 00a4;
    48   : 0000;
    49 : 00a4;
    50 : 0000;
    51 : 00a4;
    52   : 0000;
    53 : 00a4;
    54 : 0000;
    55 : 00a4;
    56   : 0000;
    57 : 00a4;
    58 : 0000;
    59 : 00a4;
    60   : 0000;
    61 : 00a4;
    62 : 0000;
    63 : 00a4;
    64   : 0000;
    65 : 00a4;
    66 : 0000;
    67 : 00a4;
    68   : 0000;
    69 : 00a4;
    70 : 0000;
    71 : 00a4;
    72   : 0000;
    73 : 00a4;
    74 : 0000;
    75 : 00a4;
    76   : 0000;
    77 : 00a4;
    78 : 0000;
    79 : 00a4;
    80   : 0000;
    81 : 00a4;
    82 : 0000;
    83 : 00a4;
    84   : 0000;
    85 : 00a4;
    86 : 0000;
    87 : 00a4;
    88   : 0000;
    89 : 00a4;
    90 : 0000;
    91 : 00a4;
    92   : 0000;
    93 : 00a4;
    94 : 0000;
    95 : 00a4;
    96   : 0000;
    97 : 00a4;
    98 : 0000;
    99 : 00a4;
    100   : 0000;
    101 : 00a4;
    102 : 0000;
    103 : 00a4;
    104   : 0000;
    105 : 00a4;
    106 : 0000;
    107 : 00a4;
    108   : 0000;
    109 : 00a4;
    110 : 0000;
    111 : 00a4;
    112   : 0000;
    113 : 00a4;
    114 : 0000;
    115 : 00a4;
    116   : 0000;
    117 : 00a4;
    118 : 0000;
    119 : 00a4;
    120   : 0000;
    121 : 00a4;
    122 : 0000;
    123 : 00a4;
    124   : 0000;
    125 : 00a4;
    126 : 0000;
    127 : 00a4;
    128   : 0000;
    129 : 00a4;
    130 : 0000;
    131 : 00a4;
    132   : 0000;
    133 : 00a4;
    134 : 0000;
    135 : 00a4;
    136   : 0000;
    137 : 00a4;
    138 : 0000;
    139 : 00a4;
    140   : 0000;
    141 : 00a4;
    142 : 0000;
    143 : 00a4;
    144   : 0000;
    145 : 00a4;
    146 : 0000;
    147 : 00a4;
    148   : 0000;
    149 : 00a4;
    150 : 0000;
    151 : 00a4;
    152   : 0000;
    153 : 00a4;
    154 : 0000;
    155 : 00a4;
    156   : 0000;
    157 : 00a4;
    158 : 0000;
    159 : 00a4;
    160   : 0000;
    161 : 00a4;
    162 : 0000;
    163 : 00a4;
    164   : 0000;
    165 : 00a4;
    166 : 0000;
    167 : 00a4;
    168   : 0000;
    169 : 00a4;
    170 : 0000;
    171 : 00a4;
    172   : 0000;
    173 : 00a4;
    174 : 0000;
    175 : 00a4;
    176   : 0000;
    177 : 00a4;
    178 : 0000;
    179 : 00a4;
    180   : 0000;
    181 : 00a4;
    182 : 0000;
    183 : 00a4;
    184   : 0000;
    185 : 00a4;
    186 : 0000;
    187 : 00a4;
    188   : 0000;
    189 : 00a4;
    190 : 0000;
    191 : 00a4;
    192   : 0000;
    193 : 00a4;
    194 : 0000;
    195 : 00a4;
    196   : 0000;
    197 : 00a4;
    198 : 0000;
    199 : 00a4;
    200   : 0000;
    201 : 00a4;
    202 : 0000;
    203 : 00a4;
    204   : 0000;
    205 : 00a4;
    206 : 0000;
    207 : 00a4;
    208   : 0000;
    209 : 00a4;
    210 : 0000;
    211 : 00a4;
    212   : 0000;
    213 : 00a4;
    214 : 0000;
    215 : 00a4;
    216   : 0000;
    217 : 00a4;
    218 : 0000;
    219 : 00a4;
    220   : 0000;
    221 : 00a4;
    222 : 0000;
    223 : 00a4;
    224   : 0000;
    225 : 00a4;
    226 : 0000;
    227 : 00a4;
    228   : 0000;
    229 : 00a4;
    230 : 0000;
    231 : 00a4;
    232   : 0000;
    233 : 00a4;
    234 : 0000;
    235 : 00a4;
    236   : 0000;
    237 : 00a4;
    238 : 0000;
    239 : 00a4;
    240   : 0000;
    241 : 00a4;
    242 : 0000;
    243 : 00a4;
    244   : 0000;
    245 : 00a4;
    246 : 0000;
    247 : 00a4;
    248   : 0000;
    249 : 00a4;
    250 : 0000;
    251 : 00a4;
    252   : 0000;
    253 : 00a4;
    254 : 0000;
    255 : 00a4;
END;
