WIDTH=16;
DEPTH=256;
ADDRESS_RADIX=UNS;
DATA_RADIX=HEX;
CONTENT BEGIN
    0   : 0000;
    1 : 00a0;
    2 : 0000;
    3 : 00a0;
    4   : 0000;
    5 : 00a0;
    6 : 0000;
    7 : 00a0;
    8   : 0000;
    9 : 00a0;
    10 : 0000;
    11 : 00a0;
    12   : 0000;
    13 : 00a0;
    14 : 0000;
    15 : 00a0;
    16   : 0000;
    17 : 00a0;
    18 : 0000;
    19 : 00a0;
    20   : 0000;
    21 : 00a0;
    22 : 0000;
    23 : 00a0;
    24   : 0000;
    25 : 00a0;
    26 : 0000;
    27 : 00a0;
    28   : 0000;
    29 : 00a0;
    30 : 0000;
    31 : 00a0;
    32   : 0000;
    33 : 00a0;
    34 : 0000;
    35 : 00a0;
    36   : 0000;
    37 : 00a0;
    38 : 0000;
    39 : 00a0;
    40   : 0000;
    41 : 00a0;
    42 : 0000;
    43 : 00a0;
    44   : 0000;
    45 : 00a0;
    46 : 0000;
    47 : 00a0;
    48   : 0000;
    49 : 00a0;
    50 : 0000;
    51 : 00a0;
    52   : 0000;
    53 : 00a0;
    54 : 0000;
    55 : 00a0;
    56   : 0000;
    57 : 00a0;
    58 : 0000;
    59 : 00a0;
    60   : 0000;
    61 : 00a0;
    62 : 0000;
    63 : 00a0;
    64   : 0000;
    65 : 00a0;
    66 : 0000;
    67 : 00a0;
    68   : 0000;
    69 : 00a0;
    70 : 0000;
    71 : 00a0;
    72   : 0000;
    73 : 00a0;
    74 : 0000;
    75 : 00a0;
    76   : 0000;
    77 : 00a0;
    78 : 0000;
    79 : 00a0;
    80   : 0000;
    81 : 00a0;
    82 : 0000;
    83 : 00a0;
    84   : 0000;
    85 : 00a0;
    86 : 0000;
    87 : 00a0;
    88   : 0000;
    89 : 00a0;
    90 : 0000;
    91 : 00a0;
    92   : 0000;
    93 : 00a0;
    94 : 0000;
    95 : 00a0;
    96   : 0000;
    97 : 00a0;
    98 : 0000;
    99 : 00a0;
    100   : 0000;
    101 : 00a0;
    102 : 0000;
    103 : 00a0;
    104   : 0000;
    105 : 00a0;
    106 : 0000;
    107 : 00a0;
    108   : 0000;
    109 : 00a0;
    110 : 0000;
    111 : 00a0;
    112   : 0000;
    113 : 00a0;
    114 : 0000;
    115 : 00a0;
    116   : 0000;
    117 : 00a0;
    118 : 0000;
    119 : 00a0;
    120   : 0000;
    121 : 00a0;
    122 : 0000;
    123 : 00a0;
    124   : 0000;
    125 : 00a0;
    126 : 0000;
    127 : 00a0;
    128   : 0000;
    129 : 00a0;
    130 : 0000;
    131 : 00a0;
    132   : 0000;
    133 : 00a0;
    134 : 0000;
    135 : 00a0;
    136   : 0000;
    137 : 00a0;
    138 : 0000;
    139 : 00a0;
    140   : 0000;
    141 : 00a0;
    142 : 0000;
    143 : 00a0;
    144   : 0000;
    145 : 00a0;
    146 : 0000;
    147 : 00a0;
    148   : 0000;
    149 : 00a0;
    150 : 0000;
    151 : 00a0;
    152   : 0000;
    153 : 00a0;
    154 : 0000;
    155 : 00a0;
    156   : 0000;
    157 : 00a0;
    158 : 0000;
    159 : 00a0;
    160   : 0000;
    161 : 00a0;
    162 : 0000;
    163 : 00a0;
    164   : 0000;
    165 : 00a0;
    166 : 0000;
    167 : 00a0;
    168   : 0000;
    169 : 00a0;
    170 : 0000;
    171 : 00a0;
    172   : 0000;
    173 : 00a0;
    174 : 0000;
    175 : 00a0;
    176   : 0000;
    177 : 00a0;
    178 : 0000;
    179 : 00a0;
    180   : 0000;
    181 : 00a0;
    182 : 0000;
    183 : 00a0;
    184   : 0000;
    185 : 00a0;
    186 : 0000;
    187 : 00a0;
    188   : 0000;
    189 : 00a0;
    190 : 0000;
    191 : 00a0;
    192   : 0000;
    193 : 00a0;
    194 : 0000;
    195 : 00a0;
    196   : 0000;
    197 : 00a0;
    198 : 0000;
    199 : 00a0;
    200   : 0000;
    201 : 00a0;
    202 : 0000;
    203 : 00a0;
    204   : 0000;
    205 : 00a0;
    206 : 0000;
    207 : 00a0;
    208   : 0000;
    209 : 00a0;
    210 : 0000;
    211 : 00a0;
    212   : 0000;
    213 : 00a0;
    214 : 0000;
    215 : 00a0;
    216   : 0000;
    217 : 00a0;
    218 : 0000;
    219 : 00a0;
    220   : 0000;
    221 : 00a0;
    222 : 0000;
    223 : 00a0;
    224   : 0000;
    225 : 00a0;
    226 : 0000;
    227 : 00a0;
    228   : 0000;
    229 : 00a0;
    230 : 0000;
    231 : 00a0;
    232   : 0000;
    233 : 00a0;
    234 : 0000;
    235 : 00a0;
    236   : 0000;
    237 : 00a0;
    238 : 0000;
    239 : 00a0;
    240   : 0000;
    241 : 00a0;
    242 : 0000;
    243 : 00a0;
    244   : 0000;
    245 : 00a0;
    246 : 0000;
    247 : 00a0;
    248   : 0000;
    249 : 00a0;
    250 : 0000;
    251 : 00a0;
    252   : 0000;
    253 : 00a0;
    254 : 0000;
    255 : 00a0;
END;
