WIDTH=16;
DEPTH=256;
ADDRESS_RADIX=UNS;
DATA_RADIX=HEX;
CONTENT BEGIN
    0   : 0000;
    1 : 00d6;
    2 : 0000;
    3 : 00d6;
    4   : 0000;
    5 : 00d6;
    6 : 0000;
    7 : 00d6;
    8   : 0000;
    9 : 00d6;
    10 : 0000;
    11 : 00d6;
    12   : 0000;
    13 : 00d6;
    14 : 0000;
    15 : 00d6;
    16   : 0000;
    17 : 00d6;
    18 : 0000;
    19 : 00d6;
    20   : 0000;
    21 : 00d6;
    22 : 0000;
    23 : 00d6;
    24   : 0000;
    25 : 00d6;
    26 : 0000;
    27 : 00d6;
    28   : 0000;
    29 : 00d6;
    30 : 0000;
    31 : 00d6;
    32   : 0000;
    33 : 00d6;
    34 : 0000;
    35 : 00d6;
    36   : 0000;
    37 : 00d6;
    38 : 0000;
    39 : 00d6;
    40   : 0000;
    41 : 00d6;
    42 : 0000;
    43 : 00d6;
    44   : 0000;
    45 : 00d6;
    46 : 0000;
    47 : 00d6;
    48   : 0000;
    49 : 00d6;
    50 : 0000;
    51 : 00d6;
    52   : 0000;
    53 : 00d6;
    54 : 0000;
    55 : 00d6;
    56   : 0000;
    57 : 00d6;
    58 : 0000;
    59 : 00d6;
    60   : 0000;
    61 : 00d6;
    62 : 0000;
    63 : 00d6;
    64   : 0000;
    65 : 00d6;
    66 : 0000;
    67 : 00d6;
    68   : 0000;
    69 : 00d6;
    70 : 0000;
    71 : 00d6;
    72   : 0000;
    73 : 00d6;
    74 : 0000;
    75 : 00d6;
    76   : 0000;
    77 : 00d6;
    78 : 0000;
    79 : 00d6;
    80   : 0000;
    81 : 00d6;
    82 : 0000;
    83 : 00d6;
    84   : 0000;
    85 : 00d6;
    86 : 0000;
    87 : 00d6;
    88   : 0000;
    89 : 00d6;
    90 : 0000;
    91 : 00d6;
    92   : 0000;
    93 : 00d6;
    94 : 0000;
    95 : 00d6;
    96   : 0000;
    97 : 00d6;
    98 : 0000;
    99 : 00d6;
    100   : 0000;
    101 : 00d6;
    102 : 0000;
    103 : 00d6;
    104   : 0000;
    105 : 00d6;
    106 : 0000;
    107 : 00d6;
    108   : 0000;
    109 : 00d6;
    110 : 0000;
    111 : 00d6;
    112   : 0000;
    113 : 00d6;
    114 : 0000;
    115 : 00d6;
    116   : 0000;
    117 : 00d6;
    118 : 0000;
    119 : 00d6;
    120   : 0000;
    121 : 00d6;
    122 : 0000;
    123 : 00d6;
    124   : 0000;
    125 : 00d6;
    126 : 0000;
    127 : 00d6;
    128   : 0000;
    129 : 00d6;
    130 : 0000;
    131 : 00d6;
    132   : 0000;
    133 : 00d6;
    134 : 0000;
    135 : 00d6;
    136   : 0000;
    137 : 00d6;
    138 : 0000;
    139 : 00d6;
    140   : 0000;
    141 : 00d6;
    142 : 0000;
    143 : 00d6;
    144   : 0000;
    145 : 00d6;
    146 : 0000;
    147 : 00d6;
    148   : 0000;
    149 : 00d6;
    150 : 0000;
    151 : 00d6;
    152   : 0000;
    153 : 00d6;
    154 : 0000;
    155 : 00d6;
    156   : 0000;
    157 : 00d6;
    158 : 0000;
    159 : 00d6;
    160   : 0000;
    161 : 00d6;
    162 : 0000;
    163 : 00d6;
    164   : 0000;
    165 : 00d6;
    166 : 0000;
    167 : 00d6;
    168   : 0000;
    169 : 00d6;
    170 : 0000;
    171 : 00d6;
    172   : 0000;
    173 : 00d6;
    174 : 0000;
    175 : 00d6;
    176   : 0000;
    177 : 00d6;
    178 : 0000;
    179 : 00d6;
    180   : 0000;
    181 : 00d6;
    182 : 0000;
    183 : 00d6;
    184   : 0000;
    185 : 00d6;
    186 : 0000;
    187 : 00d6;
    188   : 0000;
    189 : 00d6;
    190 : 0000;
    191 : 00d6;
    192   : 0000;
    193 : 00d6;
    194 : 0000;
    195 : 00d6;
    196   : 0000;
    197 : 00d6;
    198 : 0000;
    199 : 00d6;
    200   : 0000;
    201 : 00d6;
    202 : 0000;
    203 : 00d6;
    204   : 0000;
    205 : 00d6;
    206 : 0000;
    207 : 00d6;
    208   : 0000;
    209 : 00d6;
    210 : 0000;
    211 : 00d6;
    212   : 0000;
    213 : 00d6;
    214 : 0000;
    215 : 00d6;
    216   : 0000;
    217 : 00d6;
    218 : 0000;
    219 : 00d6;
    220   : 0000;
    221 : 00d6;
    222 : 0000;
    223 : 00d6;
    224   : 0000;
    225 : 00d6;
    226 : 0000;
    227 : 00d6;
    228   : 0000;
    229 : 00d6;
    230 : 0000;
    231 : 00d6;
    232   : 0000;
    233 : 00d6;
    234 : 0000;
    235 : 00d6;
    236   : 0000;
    237 : 00d6;
    238 : 0000;
    239 : 00d6;
    240   : 0000;
    241 : 00d6;
    242 : 0000;
    243 : 00d6;
    244   : 0000;
    245 : 00d6;
    246 : 0000;
    247 : 00d6;
    248   : 0000;
    249 : 00d6;
    250 : 0000;
    251 : 00d6;
    252   : 0000;
    253 : 00d6;
    254 : 0000;
    255 : 00d6;
END;
