WIDTH=16;
DEPTH=256;
ADDRESS_RADIX=UNS;
DATA_RADIX=HEX;
CONTENT BEGIN
    0   : 0000;
    1 : 00d4;
    2 : 0000;
    3 : 00d4;
    4   : 0000;
    5 : 00d4;
    6 : 0000;
    7 : 00d4;
    8   : 0000;
    9 : 00d4;
    10 : 0000;
    11 : 00d4;
    12   : 0000;
    13 : 00d4;
    14 : 0000;
    15 : 00d4;
    16   : 0000;
    17 : 00d4;
    18 : 0000;
    19 : 00d4;
    20   : 0000;
    21 : 00d4;
    22 : 0000;
    23 : 00d4;
    24   : 0000;
    25 : 00d4;
    26 : 0000;
    27 : 00d4;
    28   : 0000;
    29 : 00d4;
    30 : 0000;
    31 : 00d4;
    32   : 0000;
    33 : 00d4;
    34 : 0000;
    35 : 00d4;
    36   : 0000;
    37 : 00d4;
    38 : 0000;
    39 : 00d4;
    40   : 0000;
    41 : 00d4;
    42 : 0000;
    43 : 00d4;
    44   : 0000;
    45 : 00d4;
    46 : 0000;
    47 : 00d4;
    48   : 0000;
    49 : 00d4;
    50 : 0000;
    51 : 00d4;
    52   : 0000;
    53 : 00d4;
    54 : 0000;
    55 : 00d4;
    56   : 0000;
    57 : 00d4;
    58 : 0000;
    59 : 00d4;
    60   : 0000;
    61 : 00d4;
    62 : 0000;
    63 : 00d4;
    64   : 0000;
    65 : 00d4;
    66 : 0000;
    67 : 00d4;
    68   : 0000;
    69 : 00d4;
    70 : 0000;
    71 : 00d4;
    72   : 0000;
    73 : 00d4;
    74 : 0000;
    75 : 00d4;
    76   : 0000;
    77 : 00d4;
    78 : 0000;
    79 : 00d4;
    80   : 0000;
    81 : 00d4;
    82 : 0000;
    83 : 00d4;
    84   : 0000;
    85 : 00d4;
    86 : 0000;
    87 : 00d4;
    88   : 0000;
    89 : 00d4;
    90 : 0000;
    91 : 00d4;
    92   : 0000;
    93 : 00d4;
    94 : 0000;
    95 : 00d4;
    96   : 0000;
    97 : 00d4;
    98 : 0000;
    99 : 00d4;
    100   : 0000;
    101 : 00d4;
    102 : 0000;
    103 : 00d4;
    104   : 0000;
    105 : 00d4;
    106 : 0000;
    107 : 00d4;
    108   : 0000;
    109 : 00d4;
    110 : 0000;
    111 : 00d4;
    112   : 0000;
    113 : 00d4;
    114 : 0000;
    115 : 00d4;
    116   : 0000;
    117 : 00d4;
    118 : 0000;
    119 : 00d4;
    120   : 0000;
    121 : 00d4;
    122 : 0000;
    123 : 00d4;
    124   : 0000;
    125 : 00d4;
    126 : 0000;
    127 : 00d4;
    128   : 0000;
    129 : 00d4;
    130 : 0000;
    131 : 00d4;
    132   : 0000;
    133 : 00d4;
    134 : 0000;
    135 : 00d4;
    136   : 0000;
    137 : 00d4;
    138 : 0000;
    139 : 00d4;
    140   : 0000;
    141 : 00d4;
    142 : 0000;
    143 : 00d4;
    144   : 0000;
    145 : 00d4;
    146 : 0000;
    147 : 00d4;
    148   : 0000;
    149 : 00d4;
    150 : 0000;
    151 : 00d4;
    152   : 0000;
    153 : 00d4;
    154 : 0000;
    155 : 00d4;
    156   : 0000;
    157 : 00d4;
    158 : 0000;
    159 : 00d4;
    160   : 0000;
    161 : 00d4;
    162 : 0000;
    163 : 00d4;
    164   : 0000;
    165 : 00d4;
    166 : 0000;
    167 : 00d4;
    168   : 0000;
    169 : 00d4;
    170 : 0000;
    171 : 00d4;
    172   : 0000;
    173 : 00d4;
    174 : 0000;
    175 : 00d4;
    176   : 0000;
    177 : 00d4;
    178 : 0000;
    179 : 00d4;
    180   : 0000;
    181 : 00d4;
    182 : 0000;
    183 : 00d4;
    184   : 0000;
    185 : 00d4;
    186 : 0000;
    187 : 00d4;
    188   : 0000;
    189 : 00d4;
    190 : 0000;
    191 : 00d4;
    192   : 0000;
    193 : 00d4;
    194 : 0000;
    195 : 00d4;
    196   : 0000;
    197 : 00d4;
    198 : 0000;
    199 : 00d4;
    200   : 0000;
    201 : 00d4;
    202 : 0000;
    203 : 00d4;
    204   : 0000;
    205 : 00d4;
    206 : 0000;
    207 : 00d4;
    208   : 0000;
    209 : 00d4;
    210 : 0000;
    211 : 00d4;
    212   : 0000;
    213 : 00d4;
    214 : 0000;
    215 : 00d4;
    216   : 0000;
    217 : 00d4;
    218 : 0000;
    219 : 00d4;
    220   : 0000;
    221 : 00d4;
    222 : 0000;
    223 : 00d4;
    224   : 0000;
    225 : 00d4;
    226 : 0000;
    227 : 00d4;
    228   : 0000;
    229 : 00d4;
    230 : 0000;
    231 : 00d4;
    232   : 0000;
    233 : 00d4;
    234 : 0000;
    235 : 00d4;
    236   : 0000;
    237 : 00d4;
    238 : 0000;
    239 : 00d4;
    240   : 0000;
    241 : 00d4;
    242 : 0000;
    243 : 00d4;
    244   : 0000;
    245 : 00d4;
    246 : 0000;
    247 : 00d4;
    248   : 0000;
    249 : 00d4;
    250 : 0000;
    251 : 00d4;
    252   : 0000;
    253 : 00d4;
    254 : 0000;
    255 : 00d4;
END;
