WIDTH=16;
DEPTH=256;
ADDRESS_RADIX=UNS;
DATA_RADIX=HEX;
CONTENT BEGIN
    0   : 0000;
    1 : 0098;
    2 : 0000;
    3 : 0098;
    4   : 0000;
    5 : 0098;
    6 : 0000;
    7 : 0098;
    8   : 0000;
    9 : 0098;
    10 : 0000;
    11 : 0098;
    12   : 0000;
    13 : 0098;
    14 : 0000;
    15 : 0098;
    16   : 0000;
    17 : 0098;
    18 : 0000;
    19 : 0098;
    20   : 0000;
    21 : 0098;
    22 : 0000;
    23 : 0098;
    24   : 0000;
    25 : 0098;
    26 : 0000;
    27 : 0098;
    28   : 0000;
    29 : 0098;
    30 : 0000;
    31 : 0098;
    32   : 0000;
    33 : 0098;
    34 : 0000;
    35 : 0098;
    36   : 0000;
    37 : 0098;
    38 : 0000;
    39 : 0098;
    40   : 0000;
    41 : 0098;
    42 : 0000;
    43 : 0098;
    44   : 0000;
    45 : 0098;
    46 : 0000;
    47 : 0098;
    48   : 0000;
    49 : 0098;
    50 : 0000;
    51 : 0098;
    52   : 0000;
    53 : 0098;
    54 : 0000;
    55 : 0098;
    56   : 0000;
    57 : 0098;
    58 : 0000;
    59 : 0098;
    60   : 0000;
    61 : 0098;
    62 : 0000;
    63 : 0098;
    64   : 0000;
    65 : 0098;
    66 : 0000;
    67 : 0098;
    68   : 0000;
    69 : 0098;
    70 : 0000;
    71 : 0098;
    72   : 0000;
    73 : 0098;
    74 : 0000;
    75 : 0098;
    76   : 0000;
    77 : 0098;
    78 : 0000;
    79 : 0098;
    80   : 0000;
    81 : 0098;
    82 : 0000;
    83 : 0098;
    84   : 0000;
    85 : 0098;
    86 : 0000;
    87 : 0098;
    88   : 0000;
    89 : 0098;
    90 : 0000;
    91 : 0098;
    92   : 0000;
    93 : 0098;
    94 : 0000;
    95 : 0098;
    96   : 0000;
    97 : 0098;
    98 : 0000;
    99 : 0098;
    100   : 0000;
    101 : 0098;
    102 : 0000;
    103 : 0098;
    104   : 0000;
    105 : 0098;
    106 : 0000;
    107 : 0098;
    108   : 0000;
    109 : 0098;
    110 : 0000;
    111 : 0098;
    112   : 0000;
    113 : 0098;
    114 : 0000;
    115 : 0098;
    116   : 0000;
    117 : 0098;
    118 : 0000;
    119 : 0098;
    120   : 0000;
    121 : 0098;
    122 : 0000;
    123 : 0098;
    124   : 0000;
    125 : 0098;
    126 : 0000;
    127 : 0098;
    128   : 0000;
    129 : 0098;
    130 : 0000;
    131 : 0098;
    132   : 0000;
    133 : 0098;
    134 : 0000;
    135 : 0098;
    136   : 0000;
    137 : 0098;
    138 : 0000;
    139 : 0098;
    140   : 0000;
    141 : 0098;
    142 : 0000;
    143 : 0098;
    144   : 0000;
    145 : 0098;
    146 : 0000;
    147 : 0098;
    148   : 0000;
    149 : 0098;
    150 : 0000;
    151 : 0098;
    152   : 0000;
    153 : 0098;
    154 : 0000;
    155 : 0098;
    156   : 0000;
    157 : 0098;
    158 : 0000;
    159 : 0098;
    160   : 0000;
    161 : 0098;
    162 : 0000;
    163 : 0098;
    164   : 0000;
    165 : 0098;
    166 : 0000;
    167 : 0098;
    168   : 0000;
    169 : 0098;
    170 : 0000;
    171 : 0098;
    172   : 0000;
    173 : 0098;
    174 : 0000;
    175 : 0098;
    176   : 0000;
    177 : 0098;
    178 : 0000;
    179 : 0098;
    180   : 0000;
    181 : 0098;
    182 : 0000;
    183 : 0098;
    184   : 0000;
    185 : 0098;
    186 : 0000;
    187 : 0098;
    188   : 0000;
    189 : 0098;
    190 : 0000;
    191 : 0098;
    192   : 0000;
    193 : 0098;
    194 : 0000;
    195 : 0098;
    196   : 0000;
    197 : 0098;
    198 : 0000;
    199 : 0098;
    200   : 0000;
    201 : 0098;
    202 : 0000;
    203 : 0098;
    204   : 0000;
    205 : 0098;
    206 : 0000;
    207 : 0098;
    208   : 0000;
    209 : 0098;
    210 : 0000;
    211 : 0098;
    212   : 0000;
    213 : 0098;
    214 : 0000;
    215 : 0098;
    216   : 0000;
    217 : 0098;
    218 : 0000;
    219 : 0098;
    220   : 0000;
    221 : 0098;
    222 : 0000;
    223 : 0098;
    224   : 0000;
    225 : 0098;
    226 : 0000;
    227 : 0098;
    228   : 0000;
    229 : 0098;
    230 : 0000;
    231 : 0098;
    232   : 0000;
    233 : 0098;
    234 : 0000;
    235 : 0098;
    236   : 0000;
    237 : 0098;
    238 : 0000;
    239 : 0098;
    240   : 0000;
    241 : 0098;
    242 : 0000;
    243 : 0098;
    244   : 0000;
    245 : 0098;
    246 : 0000;
    247 : 0098;
    248   : 0000;
    249 : 0098;
    250 : 0000;
    251 : 0098;
    252   : 0000;
    253 : 0098;
    254 : 0000;
    255 : 0098;
END;
