WIDTH=16;
DEPTH=256;
ADDRESS_RADIX=UNS;
DATA_RADIX=HEX;
CONTENT BEGIN
    0   : 0000;
    1 : 00c2;
    2 : 0000;
    3 : 00c2;
    4   : 0000;
    5 : 00c2;
    6 : 0000;
    7 : 00c2;
    8   : 0000;
    9 : 00c2;
    10 : 0000;
    11 : 00c2;
    12   : 0000;
    13 : 00c2;
    14 : 0000;
    15 : 00c2;
    16   : 0000;
    17 : 00c2;
    18 : 0000;
    19 : 00c2;
    20   : 0000;
    21 : 00c2;
    22 : 0000;
    23 : 00c2;
    24   : 0000;
    25 : 00c2;
    26 : 0000;
    27 : 00c2;
    28   : 0000;
    29 : 00c2;
    30 : 0000;
    31 : 00c2;
    32   : 0000;
    33 : 00c2;
    34 : 0000;
    35 : 00c2;
    36   : 0000;
    37 : 00c2;
    38 : 0000;
    39 : 00c2;
    40   : 0000;
    41 : 00c2;
    42 : 0000;
    43 : 00c2;
    44   : 0000;
    45 : 00c2;
    46 : 0000;
    47 : 00c2;
    48   : 0000;
    49 : 00c2;
    50 : 0000;
    51 : 00c2;
    52   : 0000;
    53 : 00c2;
    54 : 0000;
    55 : 00c2;
    56   : 0000;
    57 : 00c2;
    58 : 0000;
    59 : 00c2;
    60   : 0000;
    61 : 00c2;
    62 : 0000;
    63 : 00c2;
    64   : 0000;
    65 : 00c2;
    66 : 0000;
    67 : 00c2;
    68   : 0000;
    69 : 00c2;
    70 : 0000;
    71 : 00c2;
    72   : 0000;
    73 : 00c2;
    74 : 0000;
    75 : 00c2;
    76   : 0000;
    77 : 00c2;
    78 : 0000;
    79 : 00c2;
    80   : 0000;
    81 : 00c2;
    82 : 0000;
    83 : 00c2;
    84   : 0000;
    85 : 00c2;
    86 : 0000;
    87 : 00c2;
    88   : 0000;
    89 : 00c2;
    90 : 0000;
    91 : 00c2;
    92   : 0000;
    93 : 00c2;
    94 : 0000;
    95 : 00c2;
    96   : 0000;
    97 : 00c2;
    98 : 0000;
    99 : 00c2;
    100   : 0000;
    101 : 00c2;
    102 : 0000;
    103 : 00c2;
    104   : 0000;
    105 : 00c2;
    106 : 0000;
    107 : 00c2;
    108   : 0000;
    109 : 00c2;
    110 : 0000;
    111 : 00c2;
    112   : 0000;
    113 : 00c2;
    114 : 0000;
    115 : 00c2;
    116   : 0000;
    117 : 00c2;
    118 : 0000;
    119 : 00c2;
    120   : 0000;
    121 : 00c2;
    122 : 0000;
    123 : 00c2;
    124   : 0000;
    125 : 00c2;
    126 : 0000;
    127 : 00c2;
    128   : 0000;
    129 : 00c2;
    130 : 0000;
    131 : 00c2;
    132   : 0000;
    133 : 00c2;
    134 : 0000;
    135 : 00c2;
    136   : 0000;
    137 : 00c2;
    138 : 0000;
    139 : 00c2;
    140   : 0000;
    141 : 00c2;
    142 : 0000;
    143 : 00c2;
    144   : 0000;
    145 : 00c2;
    146 : 0000;
    147 : 00c2;
    148   : 0000;
    149 : 00c2;
    150 : 0000;
    151 : 00c2;
    152   : 0000;
    153 : 00c2;
    154 : 0000;
    155 : 00c2;
    156   : 0000;
    157 : 00c2;
    158 : 0000;
    159 : 00c2;
    160   : 0000;
    161 : 00c2;
    162 : 0000;
    163 : 00c2;
    164   : 0000;
    165 : 00c2;
    166 : 0000;
    167 : 00c2;
    168   : 0000;
    169 : 00c2;
    170 : 0000;
    171 : 00c2;
    172   : 0000;
    173 : 00c2;
    174 : 0000;
    175 : 00c2;
    176   : 0000;
    177 : 00c2;
    178 : 0000;
    179 : 00c2;
    180   : 0000;
    181 : 00c2;
    182 : 0000;
    183 : 00c2;
    184   : 0000;
    185 : 00c2;
    186 : 0000;
    187 : 00c2;
    188   : 0000;
    189 : 00c2;
    190 : 0000;
    191 : 00c2;
    192   : 0000;
    193 : 00c2;
    194 : 0000;
    195 : 00c2;
    196   : 0000;
    197 : 00c2;
    198 : 0000;
    199 : 00c2;
    200   : 0000;
    201 : 00c2;
    202 : 0000;
    203 : 00c2;
    204   : 0000;
    205 : 00c2;
    206 : 0000;
    207 : 00c2;
    208   : 0000;
    209 : 00c2;
    210 : 0000;
    211 : 00c2;
    212   : 0000;
    213 : 00c2;
    214 : 0000;
    215 : 00c2;
    216   : 0000;
    217 : 00c2;
    218 : 0000;
    219 : 00c2;
    220   : 0000;
    221 : 00c2;
    222 : 0000;
    223 : 00c2;
    224   : 0000;
    225 : 00c2;
    226 : 0000;
    227 : 00c2;
    228   : 0000;
    229 : 00c2;
    230 : 0000;
    231 : 00c2;
    232   : 0000;
    233 : 00c2;
    234 : 0000;
    235 : 00c2;
    236   : 0000;
    237 : 00c2;
    238 : 0000;
    239 : 00c2;
    240   : 0000;
    241 : 00c2;
    242 : 0000;
    243 : 00c2;
    244   : 0000;
    245 : 00c2;
    246 : 0000;
    247 : 00c2;
    248   : 0000;
    249 : 00c2;
    250 : 0000;
    251 : 00c2;
    252   : 0000;
    253 : 00c2;
    254 : 0000;
    255 : 00c2;
END;
