WIDTH=16;
DEPTH=256;
ADDRESS_RADIX=UNS;
DATA_RADIX=HEX;
CONTENT BEGIN
    0   : 0000;
    1 : 0090;
    2 : 0000;
    3 : 0090;
    4   : 0000;
    5 : 0090;
    6 : 0000;
    7 : 0090;
    8   : 0000;
    9 : 0090;
    10 : 0000;
    11 : 0090;
    12   : 0000;
    13 : 0090;
    14 : 0000;
    15 : 0090;
    16   : 0000;
    17 : 0090;
    18 : 0000;
    19 : 0090;
    20   : 0000;
    21 : 0090;
    22 : 0000;
    23 : 0090;
    24   : 0000;
    25 : 0090;
    26 : 0000;
    27 : 0090;
    28   : 0000;
    29 : 0090;
    30 : 0000;
    31 : 0090;
    32   : 0000;
    33 : 0090;
    34 : 0000;
    35 : 0090;
    36   : 0000;
    37 : 0090;
    38 : 0000;
    39 : 0090;
    40   : 0000;
    41 : 0090;
    42 : 0000;
    43 : 0090;
    44   : 0000;
    45 : 0090;
    46 : 0000;
    47 : 0090;
    48   : 0000;
    49 : 0090;
    50 : 0000;
    51 : 0090;
    52   : 0000;
    53 : 0090;
    54 : 0000;
    55 : 0090;
    56   : 0000;
    57 : 0090;
    58 : 0000;
    59 : 0090;
    60   : 0000;
    61 : 0090;
    62 : 0000;
    63 : 0090;
    64   : 0000;
    65 : 0090;
    66 : 0000;
    67 : 0090;
    68   : 0000;
    69 : 0090;
    70 : 0000;
    71 : 0090;
    72   : 0000;
    73 : 0090;
    74 : 0000;
    75 : 0090;
    76   : 0000;
    77 : 0090;
    78 : 0000;
    79 : 0090;
    80   : 0000;
    81 : 0090;
    82 : 0000;
    83 : 0090;
    84   : 0000;
    85 : 0090;
    86 : 0000;
    87 : 0090;
    88   : 0000;
    89 : 0090;
    90 : 0000;
    91 : 0090;
    92   : 0000;
    93 : 0090;
    94 : 0000;
    95 : 0090;
    96   : 0000;
    97 : 0090;
    98 : 0000;
    99 : 0090;
    100   : 0000;
    101 : 0090;
    102 : 0000;
    103 : 0090;
    104   : 0000;
    105 : 0090;
    106 : 0000;
    107 : 0090;
    108   : 0000;
    109 : 0090;
    110 : 0000;
    111 : 0090;
    112   : 0000;
    113 : 0090;
    114 : 0000;
    115 : 0090;
    116   : 0000;
    117 : 0090;
    118 : 0000;
    119 : 0090;
    120   : 0000;
    121 : 0090;
    122 : 0000;
    123 : 0090;
    124   : 0000;
    125 : 0090;
    126 : 0000;
    127 : 0090;
    128   : 0000;
    129 : 0090;
    130 : 0000;
    131 : 0090;
    132   : 0000;
    133 : 0090;
    134 : 0000;
    135 : 0090;
    136   : 0000;
    137 : 0090;
    138 : 0000;
    139 : 0090;
    140   : 0000;
    141 : 0090;
    142 : 0000;
    143 : 0090;
    144   : 0000;
    145 : 0090;
    146 : 0000;
    147 : 0090;
    148   : 0000;
    149 : 0090;
    150 : 0000;
    151 : 0090;
    152   : 0000;
    153 : 0090;
    154 : 0000;
    155 : 0090;
    156   : 0000;
    157 : 0090;
    158 : 0000;
    159 : 0090;
    160   : 0000;
    161 : 0090;
    162 : 0000;
    163 : 0090;
    164   : 0000;
    165 : 0090;
    166 : 0000;
    167 : 0090;
    168   : 0000;
    169 : 0090;
    170 : 0000;
    171 : 0090;
    172   : 0000;
    173 : 0090;
    174 : 0000;
    175 : 0090;
    176   : 0000;
    177 : 0090;
    178 : 0000;
    179 : 0090;
    180   : 0000;
    181 : 0090;
    182 : 0000;
    183 : 0090;
    184   : 0000;
    185 : 0090;
    186 : 0000;
    187 : 0090;
    188   : 0000;
    189 : 0090;
    190 : 0000;
    191 : 0090;
    192   : 0000;
    193 : 0090;
    194 : 0000;
    195 : 0090;
    196   : 0000;
    197 : 0090;
    198 : 0000;
    199 : 0090;
    200   : 0000;
    201 : 0090;
    202 : 0000;
    203 : 0090;
    204   : 0000;
    205 : 0090;
    206 : 0000;
    207 : 0090;
    208   : 0000;
    209 : 0090;
    210 : 0000;
    211 : 0090;
    212   : 0000;
    213 : 0090;
    214 : 0000;
    215 : 0090;
    216   : 0000;
    217 : 0090;
    218 : 0000;
    219 : 0090;
    220   : 0000;
    221 : 0090;
    222 : 0000;
    223 : 0090;
    224   : 0000;
    225 : 0090;
    226 : 0000;
    227 : 0090;
    228   : 0000;
    229 : 0090;
    230 : 0000;
    231 : 0090;
    232   : 0000;
    233 : 0090;
    234 : 0000;
    235 : 0090;
    236   : 0000;
    237 : 0090;
    238 : 0000;
    239 : 0090;
    240   : 0000;
    241 : 0090;
    242 : 0000;
    243 : 0090;
    244   : 0000;
    245 : 0090;
    246 : 0000;
    247 : 0090;
    248   : 0000;
    249 : 0090;
    250 : 0000;
    251 : 0090;
    252   : 0000;
    253 : 0090;
    254 : 0000;
    255 : 0090;
END;
