WIDTH=16;
DEPTH=256;
ADDRESS_RADIX=UNS;
DATA_RADIX=HEX;
CONTENT BEGIN
    0   : 0000;
    1 : 0080;
    2 : 0000;
    3 : 0080;
    4   : 0000;
    5 : 0080;
    6 : 0000;
    7 : 0080;
    8   : 0000;
    9 : 0080;
    10 : 0000;
    11 : 0080;
    12   : 0000;
    13 : 0080;
    14 : 0000;
    15 : 0080;
    16   : 0000;
    17 : 0080;
    18 : 0000;
    19 : 0080;
    20   : 0000;
    21 : 0080;
    22 : 0000;
    23 : 0080;
    24   : 0000;
    25 : 0080;
    26 : 0000;
    27 : 0080;
    28   : 0000;
    29 : 0080;
    30 : 0000;
    31 : 0080;
    32   : 0000;
    33 : 0080;
    34 : 0000;
    35 : 0080;
    36   : 0000;
    37 : 0080;
    38 : 0000;
    39 : 0080;
    40   : 0000;
    41 : 0080;
    42 : 0000;
    43 : 0080;
    44   : 0000;
    45 : 0080;
    46 : 0000;
    47 : 0080;
    48   : 0000;
    49 : 0080;
    50 : 0000;
    51 : 0080;
    52   : 0000;
    53 : 0080;
    54 : 0000;
    55 : 0080;
    56   : 0000;
    57 : 0080;
    58 : 0000;
    59 : 0080;
    60   : 0000;
    61 : 0080;
    62 : 0000;
    63 : 0080;
    64   : 0000;
    65 : 0080;
    66 : 0000;
    67 : 0080;
    68   : 0000;
    69 : 0080;
    70 : 0000;
    71 : 0080;
    72   : 0000;
    73 : 0080;
    74 : 0000;
    75 : 0080;
    76   : 0000;
    77 : 0080;
    78 : 0000;
    79 : 0080;
    80   : 0000;
    81 : 0080;
    82 : 0000;
    83 : 0080;
    84   : 0000;
    85 : 0080;
    86 : 0000;
    87 : 0080;
    88   : 0000;
    89 : 0080;
    90 : 0000;
    91 : 0080;
    92   : 0000;
    93 : 0080;
    94 : 0000;
    95 : 0080;
    96   : 0000;
    97 : 0080;
    98 : 0000;
    99 : 0080;
    100   : 0000;
    101 : 0080;
    102 : 0000;
    103 : 0080;
    104   : 0000;
    105 : 0080;
    106 : 0000;
    107 : 0080;
    108   : 0000;
    109 : 0080;
    110 : 0000;
    111 : 0080;
    112   : 0000;
    113 : 0080;
    114 : 0000;
    115 : 0080;
    116   : 0000;
    117 : 0080;
    118 : 0000;
    119 : 0080;
    120   : 0000;
    121 : 0080;
    122 : 0000;
    123 : 0080;
    124   : 0000;
    125 : 0080;
    126 : 0000;
    127 : 0080;
    128   : 0000;
    129 : 0080;
    130 : 0000;
    131 : 0080;
    132   : 0000;
    133 : 0080;
    134 : 0000;
    135 : 0080;
    136   : 0000;
    137 : 0080;
    138 : 0000;
    139 : 0080;
    140   : 0000;
    141 : 0080;
    142 : 0000;
    143 : 0080;
    144   : 0000;
    145 : 0080;
    146 : 0000;
    147 : 0080;
    148   : 0000;
    149 : 0080;
    150 : 0000;
    151 : 0080;
    152   : 0000;
    153 : 0080;
    154 : 0000;
    155 : 0080;
    156   : 0000;
    157 : 0080;
    158 : 0000;
    159 : 0080;
    160   : 0000;
    161 : 0080;
    162 : 0000;
    163 : 0080;
    164   : 0000;
    165 : 0080;
    166 : 0000;
    167 : 0080;
    168   : 0000;
    169 : 0080;
    170 : 0000;
    171 : 0080;
    172   : 0000;
    173 : 0080;
    174 : 0000;
    175 : 0080;
    176   : 0000;
    177 : 0080;
    178 : 0000;
    179 : 0080;
    180   : 0000;
    181 : 0080;
    182 : 0000;
    183 : 0080;
    184   : 0000;
    185 : 0080;
    186 : 0000;
    187 : 0080;
    188   : 0000;
    189 : 0080;
    190 : 0000;
    191 : 0080;
    192   : 0000;
    193 : 0080;
    194 : 0000;
    195 : 0080;
    196   : 0000;
    197 : 0080;
    198 : 0000;
    199 : 0080;
    200   : 0000;
    201 : 0080;
    202 : 0000;
    203 : 0080;
    204   : 0000;
    205 : 0080;
    206 : 0000;
    207 : 0080;
    208   : 0000;
    209 : 0080;
    210 : 0000;
    211 : 0080;
    212   : 0000;
    213 : 0080;
    214 : 0000;
    215 : 0080;
    216   : 0000;
    217 : 0080;
    218 : 0000;
    219 : 0080;
    220   : 0000;
    221 : 0080;
    222 : 0000;
    223 : 0080;
    224   : 0000;
    225 : 0080;
    226 : 0000;
    227 : 0080;
    228   : 0000;
    229 : 0080;
    230 : 0000;
    231 : 0080;
    232   : 0000;
    233 : 0080;
    234 : 0000;
    235 : 0080;
    236   : 0000;
    237 : 0080;
    238 : 0000;
    239 : 0080;
    240   : 0000;
    241 : 0080;
    242 : 0000;
    243 : 0080;
    244   : 0000;
    245 : 0080;
    246 : 0000;
    247 : 0080;
    248   : 0000;
    249 : 0080;
    250 : 0000;
    251 : 0080;
    252   : 0000;
    253 : 0080;
    254 : 0000;
    255 : 0080;
END;
