WIDTH=16;
DEPTH=256;
ADDRESS_RADIX=UNS;
DATA_RADIX=HEX;
CONTENT BEGIN
    0   : 0000;
    1 : 00f6;
    2 : 0000;
    3 : 00f6;
    4   : 0000;
    5 : 00f6;
    6 : 0000;
    7 : 00f6;
    8   : 0000;
    9 : 00f6;
    10 : 0000;
    11 : 00f6;
    12   : 0000;
    13 : 00f6;
    14 : 0000;
    15 : 00f6;
    16   : 0000;
    17 : 00f6;
    18 : 0000;
    19 : 00f6;
    20   : 0000;
    21 : 00f6;
    22 : 0000;
    23 : 00f6;
    24   : 0000;
    25 : 00f6;
    26 : 0000;
    27 : 00f6;
    28   : 0000;
    29 : 00f6;
    30 : 0000;
    31 : 00f6;
    32   : 0000;
    33 : 00f6;
    34 : 0000;
    35 : 00f6;
    36   : 0000;
    37 : 00f6;
    38 : 0000;
    39 : 00f6;
    40   : 0000;
    41 : 00f6;
    42 : 0000;
    43 : 00f6;
    44   : 0000;
    45 : 00f6;
    46 : 0000;
    47 : 00f6;
    48   : 0000;
    49 : 00f6;
    50 : 0000;
    51 : 00f6;
    52   : 0000;
    53 : 00f6;
    54 : 0000;
    55 : 00f6;
    56   : 0000;
    57 : 00f6;
    58 : 0000;
    59 : 00f6;
    60   : 0000;
    61 : 00f6;
    62 : 0000;
    63 : 00f6;
    64   : 0000;
    65 : 00f6;
    66 : 0000;
    67 : 00f6;
    68   : 0000;
    69 : 00f6;
    70 : 0000;
    71 : 00f6;
    72   : 0000;
    73 : 00f6;
    74 : 0000;
    75 : 00f6;
    76   : 0000;
    77 : 00f6;
    78 : 0000;
    79 : 00f6;
    80   : 0000;
    81 : 00f6;
    82 : 0000;
    83 : 00f6;
    84   : 0000;
    85 : 00f6;
    86 : 0000;
    87 : 00f6;
    88   : 0000;
    89 : 00f6;
    90 : 0000;
    91 : 00f6;
    92   : 0000;
    93 : 00f6;
    94 : 0000;
    95 : 00f6;
    96   : 0000;
    97 : 00f6;
    98 : 0000;
    99 : 00f6;
    100   : 0000;
    101 : 00f6;
    102 : 0000;
    103 : 00f6;
    104   : 0000;
    105 : 00f6;
    106 : 0000;
    107 : 00f6;
    108   : 0000;
    109 : 00f6;
    110 : 0000;
    111 : 00f6;
    112   : 0000;
    113 : 00f6;
    114 : 0000;
    115 : 00f6;
    116   : 0000;
    117 : 00f6;
    118 : 0000;
    119 : 00f6;
    120   : 0000;
    121 : 00f6;
    122 : 0000;
    123 : 00f6;
    124   : 0000;
    125 : 00f6;
    126 : 0000;
    127 : 00f6;
    128   : 0000;
    129 : 00f6;
    130 : 0000;
    131 : 00f6;
    132   : 0000;
    133 : 00f6;
    134 : 0000;
    135 : 00f6;
    136   : 0000;
    137 : 00f6;
    138 : 0000;
    139 : 00f6;
    140   : 0000;
    141 : 00f6;
    142 : 0000;
    143 : 00f6;
    144   : 0000;
    145 : 00f6;
    146 : 0000;
    147 : 00f6;
    148   : 0000;
    149 : 00f6;
    150 : 0000;
    151 : 00f6;
    152   : 0000;
    153 : 00f6;
    154 : 0000;
    155 : 00f6;
    156   : 0000;
    157 : 00f6;
    158 : 0000;
    159 : 00f6;
    160   : 0000;
    161 : 00f6;
    162 : 0000;
    163 : 00f6;
    164   : 0000;
    165 : 00f6;
    166 : 0000;
    167 : 00f6;
    168   : 0000;
    169 : 00f6;
    170 : 0000;
    171 : 00f6;
    172   : 0000;
    173 : 00f6;
    174 : 0000;
    175 : 00f6;
    176   : 0000;
    177 : 00f6;
    178 : 0000;
    179 : 00f6;
    180   : 0000;
    181 : 00f6;
    182 : 0000;
    183 : 00f6;
    184   : 0000;
    185 : 00f6;
    186 : 0000;
    187 : 00f6;
    188   : 0000;
    189 : 00f6;
    190 : 0000;
    191 : 00f6;
    192   : 0000;
    193 : 00f6;
    194 : 0000;
    195 : 00f6;
    196   : 0000;
    197 : 00f6;
    198 : 0000;
    199 : 00f6;
    200   : 0000;
    201 : 00f6;
    202 : 0000;
    203 : 00f6;
    204   : 0000;
    205 : 00f6;
    206 : 0000;
    207 : 00f6;
    208   : 0000;
    209 : 00f6;
    210 : 0000;
    211 : 00f6;
    212   : 0000;
    213 : 00f6;
    214 : 0000;
    215 : 00f6;
    216   : 0000;
    217 : 00f6;
    218 : 0000;
    219 : 00f6;
    220   : 0000;
    221 : 00f6;
    222 : 0000;
    223 : 00f6;
    224   : 0000;
    225 : 00f6;
    226 : 0000;
    227 : 00f6;
    228   : 0000;
    229 : 00f6;
    230 : 0000;
    231 : 00f6;
    232   : 0000;
    233 : 00f6;
    234 : 0000;
    235 : 00f6;
    236   : 0000;
    237 : 00f6;
    238 : 0000;
    239 : 00f6;
    240   : 0000;
    241 : 00f6;
    242 : 0000;
    243 : 00f6;
    244   : 0000;
    245 : 00f6;
    246 : 0000;
    247 : 00f6;
    248   : 0000;
    249 : 00f6;
    250 : 0000;
    251 : 00f6;
    252   : 0000;
    253 : 00f6;
    254 : 0000;
    255 : 00f6;
END;
