WIDTH=16;
DEPTH=256;
ADDRESS_RADIX=UNS;
DATA_RADIX=HEX;
CONTENT BEGIN
    0   : 0000;
    1 : 00c0;
    2 : 0000;
    3 : 00c0;
    4   : 0000;
    5 : 00c0;
    6 : 0000;
    7 : 00c0;
    8   : 0000;
    9 : 00c0;
    10 : 0000;
    11 : 00c0;
    12   : 0000;
    13 : 00c0;
    14 : 0000;
    15 : 00c0;
    16   : 0000;
    17 : 00c0;
    18 : 0000;
    19 : 00c0;
    20   : 0000;
    21 : 00c0;
    22 : 0000;
    23 : 00c0;
    24   : 0000;
    25 : 00c0;
    26 : 0000;
    27 : 00c0;
    28   : 0000;
    29 : 00c0;
    30 : 0000;
    31 : 00c0;
    32   : 0000;
    33 : 00c0;
    34 : 0000;
    35 : 00c0;
    36   : 0000;
    37 : 00c0;
    38 : 0000;
    39 : 00c0;
    40   : 0000;
    41 : 00c0;
    42 : 0000;
    43 : 00c0;
    44   : 0000;
    45 : 00c0;
    46 : 0000;
    47 : 00c0;
    48   : 0000;
    49 : 00c0;
    50 : 0000;
    51 : 00c0;
    52   : 0000;
    53 : 00c0;
    54 : 0000;
    55 : 00c0;
    56   : 0000;
    57 : 00c0;
    58 : 0000;
    59 : 00c0;
    60   : 0000;
    61 : 00c0;
    62 : 0000;
    63 : 00c0;
    64   : 0000;
    65 : 00c0;
    66 : 0000;
    67 : 00c0;
    68   : 0000;
    69 : 00c0;
    70 : 0000;
    71 : 00c0;
    72   : 0000;
    73 : 00c0;
    74 : 0000;
    75 : 00c0;
    76   : 0000;
    77 : 00c0;
    78 : 0000;
    79 : 00c0;
    80   : 0000;
    81 : 00c0;
    82 : 0000;
    83 : 00c0;
    84   : 0000;
    85 : 00c0;
    86 : 0000;
    87 : 00c0;
    88   : 0000;
    89 : 00c0;
    90 : 0000;
    91 : 00c0;
    92   : 0000;
    93 : 00c0;
    94 : 0000;
    95 : 00c0;
    96   : 0000;
    97 : 00c0;
    98 : 0000;
    99 : 00c0;
    100   : 0000;
    101 : 00c0;
    102 : 0000;
    103 : 00c0;
    104   : 0000;
    105 : 00c0;
    106 : 0000;
    107 : 00c0;
    108   : 0000;
    109 : 00c0;
    110 : 0000;
    111 : 00c0;
    112   : 0000;
    113 : 00c0;
    114 : 0000;
    115 : 00c0;
    116   : 0000;
    117 : 00c0;
    118 : 0000;
    119 : 00c0;
    120   : 0000;
    121 : 00c0;
    122 : 0000;
    123 : 00c0;
    124   : 0000;
    125 : 00c0;
    126 : 0000;
    127 : 00c0;
    128   : 0000;
    129 : 00c0;
    130 : 0000;
    131 : 00c0;
    132   : 0000;
    133 : 00c0;
    134 : 0000;
    135 : 00c0;
    136   : 0000;
    137 : 00c0;
    138 : 0000;
    139 : 00c0;
    140   : 0000;
    141 : 00c0;
    142 : 0000;
    143 : 00c0;
    144   : 0000;
    145 : 00c0;
    146 : 0000;
    147 : 00c0;
    148   : 0000;
    149 : 00c0;
    150 : 0000;
    151 : 00c0;
    152   : 0000;
    153 : 00c0;
    154 : 0000;
    155 : 00c0;
    156   : 0000;
    157 : 00c0;
    158 : 0000;
    159 : 00c0;
    160   : 0000;
    161 : 00c0;
    162 : 0000;
    163 : 00c0;
    164   : 0000;
    165 : 00c0;
    166 : 0000;
    167 : 00c0;
    168   : 0000;
    169 : 00c0;
    170 : 0000;
    171 : 00c0;
    172   : 0000;
    173 : 00c0;
    174 : 0000;
    175 : 00c0;
    176   : 0000;
    177 : 00c0;
    178 : 0000;
    179 : 00c0;
    180   : 0000;
    181 : 00c0;
    182 : 0000;
    183 : 00c0;
    184   : 0000;
    185 : 00c0;
    186 : 0000;
    187 : 00c0;
    188   : 0000;
    189 : 00c0;
    190 : 0000;
    191 : 00c0;
    192   : 0000;
    193 : 00c0;
    194 : 0000;
    195 : 00c0;
    196   : 0000;
    197 : 00c0;
    198 : 0000;
    199 : 00c0;
    200   : 0000;
    201 : 00c0;
    202 : 0000;
    203 : 00c0;
    204   : 0000;
    205 : 00c0;
    206 : 0000;
    207 : 00c0;
    208   : 0000;
    209 : 00c0;
    210 : 0000;
    211 : 00c0;
    212   : 0000;
    213 : 00c0;
    214 : 0000;
    215 : 00c0;
    216   : 0000;
    217 : 00c0;
    218 : 0000;
    219 : 00c0;
    220   : 0000;
    221 : 00c0;
    222 : 0000;
    223 : 00c0;
    224   : 0000;
    225 : 00c0;
    226 : 0000;
    227 : 00c0;
    228   : 0000;
    229 : 00c0;
    230 : 0000;
    231 : 00c0;
    232   : 0000;
    233 : 00c0;
    234 : 0000;
    235 : 00c0;
    236   : 0000;
    237 : 00c0;
    238 : 0000;
    239 : 00c0;
    240   : 0000;
    241 : 00c0;
    242 : 0000;
    243 : 00c0;
    244   : 0000;
    245 : 00c0;
    246 : 0000;
    247 : 00c0;
    248   : 0000;
    249 : 00c0;
    250 : 0000;
    251 : 00c0;
    252   : 0000;
    253 : 00c0;
    254 : 0000;
    255 : 00c0;
END;
