WIDTH=16;
DEPTH=256;
ADDRESS_RADIX=UNS;
DATA_RADIX=HEX;
CONTENT BEGIN
    0   : 0000;
    1 : 00e0;
    2 : 0000;
    3 : 00e0;
    4   : 0000;
    5 : 00e0;
    6 : 0000;
    7 : 00e0;
    8   : 0000;
    9 : 00e0;
    10 : 0000;
    11 : 00e0;
    12   : 0000;
    13 : 00e0;
    14 : 0000;
    15 : 00e0;
    16   : 0000;
    17 : 00e0;
    18 : 0000;
    19 : 00e0;
    20   : 0000;
    21 : 00e0;
    22 : 0000;
    23 : 00e0;
    24   : 0000;
    25 : 00e0;
    26 : 0000;
    27 : 00e0;
    28   : 0000;
    29 : 00e0;
    30 : 0000;
    31 : 00e0;
    32   : 0000;
    33 : 00e0;
    34 : 0000;
    35 : 00e0;
    36   : 0000;
    37 : 00e0;
    38 : 0000;
    39 : 00e0;
    40   : 0000;
    41 : 00e0;
    42 : 0000;
    43 : 00e0;
    44   : 0000;
    45 : 00e0;
    46 : 0000;
    47 : 00e0;
    48   : 0000;
    49 : 00e0;
    50 : 0000;
    51 : 00e0;
    52   : 0000;
    53 : 00e0;
    54 : 0000;
    55 : 00e0;
    56   : 0000;
    57 : 00e0;
    58 : 0000;
    59 : 00e0;
    60   : 0000;
    61 : 00e0;
    62 : 0000;
    63 : 00e0;
    64   : 0000;
    65 : 00e0;
    66 : 0000;
    67 : 00e0;
    68   : 0000;
    69 : 00e0;
    70 : 0000;
    71 : 00e0;
    72   : 0000;
    73 : 00e0;
    74 : 0000;
    75 : 00e0;
    76   : 0000;
    77 : 00e0;
    78 : 0000;
    79 : 00e0;
    80   : 0000;
    81 : 00e0;
    82 : 0000;
    83 : 00e0;
    84   : 0000;
    85 : 00e0;
    86 : 0000;
    87 : 00e0;
    88   : 0000;
    89 : 00e0;
    90 : 0000;
    91 : 00e0;
    92   : 0000;
    93 : 00e0;
    94 : 0000;
    95 : 00e0;
    96   : 0000;
    97 : 00e0;
    98 : 0000;
    99 : 00e0;
    100   : 0000;
    101 : 00e0;
    102 : 0000;
    103 : 00e0;
    104   : 0000;
    105 : 00e0;
    106 : 0000;
    107 : 00e0;
    108   : 0000;
    109 : 00e0;
    110 : 0000;
    111 : 00e0;
    112   : 0000;
    113 : 00e0;
    114 : 0000;
    115 : 00e0;
    116   : 0000;
    117 : 00e0;
    118 : 0000;
    119 : 00e0;
    120   : 0000;
    121 : 00e0;
    122 : 0000;
    123 : 00e0;
    124   : 0000;
    125 : 00e0;
    126 : 0000;
    127 : 00e0;
    128   : 0000;
    129 : 00e0;
    130 : 0000;
    131 : 00e0;
    132   : 0000;
    133 : 00e0;
    134 : 0000;
    135 : 00e0;
    136   : 0000;
    137 : 00e0;
    138 : 0000;
    139 : 00e0;
    140   : 0000;
    141 : 00e0;
    142 : 0000;
    143 : 00e0;
    144   : 0000;
    145 : 00e0;
    146 : 0000;
    147 : 00e0;
    148   : 0000;
    149 : 00e0;
    150 : 0000;
    151 : 00e0;
    152   : 0000;
    153 : 00e0;
    154 : 0000;
    155 : 00e0;
    156   : 0000;
    157 : 00e0;
    158 : 0000;
    159 : 00e0;
    160   : 0000;
    161 : 00e0;
    162 : 0000;
    163 : 00e0;
    164   : 0000;
    165 : 00e0;
    166 : 0000;
    167 : 00e0;
    168   : 0000;
    169 : 00e0;
    170 : 0000;
    171 : 00e0;
    172   : 0000;
    173 : 00e0;
    174 : 0000;
    175 : 00e0;
    176   : 0000;
    177 : 00e0;
    178 : 0000;
    179 : 00e0;
    180   : 0000;
    181 : 00e0;
    182 : 0000;
    183 : 00e0;
    184   : 0000;
    185 : 00e0;
    186 : 0000;
    187 : 00e0;
    188   : 0000;
    189 : 00e0;
    190 : 0000;
    191 : 00e0;
    192   : 0000;
    193 : 00e0;
    194 : 0000;
    195 : 00e0;
    196   : 0000;
    197 : 00e0;
    198 : 0000;
    199 : 00e0;
    200   : 0000;
    201 : 00e0;
    202 : 0000;
    203 : 00e0;
    204   : 0000;
    205 : 00e0;
    206 : 0000;
    207 : 00e0;
    208   : 0000;
    209 : 00e0;
    210 : 0000;
    211 : 00e0;
    212   : 0000;
    213 : 00e0;
    214 : 0000;
    215 : 00e0;
    216   : 0000;
    217 : 00e0;
    218 : 0000;
    219 : 00e0;
    220   : 0000;
    221 : 00e0;
    222 : 0000;
    223 : 00e0;
    224   : 0000;
    225 : 00e0;
    226 : 0000;
    227 : 00e0;
    228   : 0000;
    229 : 00e0;
    230 : 0000;
    231 : 00e0;
    232   : 0000;
    233 : 00e0;
    234 : 0000;
    235 : 00e0;
    236   : 0000;
    237 : 00e0;
    238 : 0000;
    239 : 00e0;
    240   : 0000;
    241 : 00e0;
    242 : 0000;
    243 : 00e0;
    244   : 0000;
    245 : 00e0;
    246 : 0000;
    247 : 00e0;
    248   : 0000;
    249 : 00e0;
    250 : 0000;
    251 : 00e0;
    252   : 0000;
    253 : 00e0;
    254 : 0000;
    255 : 00e0;
END;
