WIDTH=16;
DEPTH=256;
ADDRESS_RADIX=UNS;
DATA_RADIX=HEX;
CONTENT BEGIN
    0   : 0000;
    1 : 00f2;
    2 : 0000;
    3 : 00f2;
    4   : 0000;
    5 : 00f2;
    6 : 0000;
    7 : 00f2;
    8   : 0000;
    9 : 00f2;
    10 : 0000;
    11 : 00f2;
    12   : 0000;
    13 : 00f2;
    14 : 0000;
    15 : 00f2;
    16   : 0000;
    17 : 00f2;
    18 : 0000;
    19 : 00f2;
    20   : 0000;
    21 : 00f2;
    22 : 0000;
    23 : 00f2;
    24   : 0000;
    25 : 00f2;
    26 : 0000;
    27 : 00f2;
    28   : 0000;
    29 : 00f2;
    30 : 0000;
    31 : 00f2;
    32   : 0000;
    33 : 00f2;
    34 : 0000;
    35 : 00f2;
    36   : 0000;
    37 : 00f2;
    38 : 0000;
    39 : 00f2;
    40   : 0000;
    41 : 00f2;
    42 : 0000;
    43 : 00f2;
    44   : 0000;
    45 : 00f2;
    46 : 0000;
    47 : 00f2;
    48   : 0000;
    49 : 00f2;
    50 : 0000;
    51 : 00f2;
    52   : 0000;
    53 : 00f2;
    54 : 0000;
    55 : 00f2;
    56   : 0000;
    57 : 00f2;
    58 : 0000;
    59 : 00f2;
    60   : 0000;
    61 : 00f2;
    62 : 0000;
    63 : 00f2;
    64   : 0000;
    65 : 00f2;
    66 : 0000;
    67 : 00f2;
    68   : 0000;
    69 : 00f2;
    70 : 0000;
    71 : 00f2;
    72   : 0000;
    73 : 00f2;
    74 : 0000;
    75 : 00f2;
    76   : 0000;
    77 : 00f2;
    78 : 0000;
    79 : 00f2;
    80   : 0000;
    81 : 00f2;
    82 : 0000;
    83 : 00f2;
    84   : 0000;
    85 : 00f2;
    86 : 0000;
    87 : 00f2;
    88   : 0000;
    89 : 00f2;
    90 : 0000;
    91 : 00f2;
    92   : 0000;
    93 : 00f2;
    94 : 0000;
    95 : 00f2;
    96   : 0000;
    97 : 00f2;
    98 : 0000;
    99 : 00f2;
    100   : 0000;
    101 : 00f2;
    102 : 0000;
    103 : 00f2;
    104   : 0000;
    105 : 00f2;
    106 : 0000;
    107 : 00f2;
    108   : 0000;
    109 : 00f2;
    110 : 0000;
    111 : 00f2;
    112   : 0000;
    113 : 00f2;
    114 : 0000;
    115 : 00f2;
    116   : 0000;
    117 : 00f2;
    118 : 0000;
    119 : 00f2;
    120   : 0000;
    121 : 00f2;
    122 : 0000;
    123 : 00f2;
    124   : 0000;
    125 : 00f2;
    126 : 0000;
    127 : 00f2;
    128   : 0000;
    129 : 00f2;
    130 : 0000;
    131 : 00f2;
    132   : 0000;
    133 : 00f2;
    134 : 0000;
    135 : 00f2;
    136   : 0000;
    137 : 00f2;
    138 : 0000;
    139 : 00f2;
    140   : 0000;
    141 : 00f2;
    142 : 0000;
    143 : 00f2;
    144   : 0000;
    145 : 00f2;
    146 : 0000;
    147 : 00f2;
    148   : 0000;
    149 : 00f2;
    150 : 0000;
    151 : 00f2;
    152   : 0000;
    153 : 00f2;
    154 : 0000;
    155 : 00f2;
    156   : 0000;
    157 : 00f2;
    158 : 0000;
    159 : 00f2;
    160   : 0000;
    161 : 00f2;
    162 : 0000;
    163 : 00f2;
    164   : 0000;
    165 : 00f2;
    166 : 0000;
    167 : 00f2;
    168   : 0000;
    169 : 00f2;
    170 : 0000;
    171 : 00f2;
    172   : 0000;
    173 : 00f2;
    174 : 0000;
    175 : 00f2;
    176   : 0000;
    177 : 00f2;
    178 : 0000;
    179 : 00f2;
    180   : 0000;
    181 : 00f2;
    182 : 0000;
    183 : 00f2;
    184   : 0000;
    185 : 00f2;
    186 : 0000;
    187 : 00f2;
    188   : 0000;
    189 : 00f2;
    190 : 0000;
    191 : 00f2;
    192   : 0000;
    193 : 00f2;
    194 : 0000;
    195 : 00f2;
    196   : 0000;
    197 : 00f2;
    198 : 0000;
    199 : 00f2;
    200   : 0000;
    201 : 00f2;
    202 : 0000;
    203 : 00f2;
    204   : 0000;
    205 : 00f2;
    206 : 0000;
    207 : 00f2;
    208   : 0000;
    209 : 00f2;
    210 : 0000;
    211 : 00f2;
    212   : 0000;
    213 : 00f2;
    214 : 0000;
    215 : 00f2;
    216   : 0000;
    217 : 00f2;
    218 : 0000;
    219 : 00f2;
    220   : 0000;
    221 : 00f2;
    222 : 0000;
    223 : 00f2;
    224   : 0000;
    225 : 00f2;
    226 : 0000;
    227 : 00f2;
    228   : 0000;
    229 : 00f2;
    230 : 0000;
    231 : 00f2;
    232   : 0000;
    233 : 00f2;
    234 : 0000;
    235 : 00f2;
    236   : 0000;
    237 : 00f2;
    238 : 0000;
    239 : 00f2;
    240   : 0000;
    241 : 00f2;
    242 : 0000;
    243 : 00f2;
    244   : 0000;
    245 : 00f2;
    246 : 0000;
    247 : 00f2;
    248   : 0000;
    249 : 00f2;
    250 : 0000;
    251 : 00f2;
    252   : 0000;
    253 : 00f2;
    254 : 0000;
    255 : 00f2;
END;
