WIDTH=16;
DEPTH=256;
ADDRESS_RADIX=UNS;
DATA_RADIX=HEX;
CONTENT BEGIN
    0   : 0000;
    1 : 00a8;
    2 : 0000;
    3 : 00a8;
    4   : 0000;
    5 : 00a8;
    6 : 0000;
    7 : 00a8;
    8   : 0000;
    9 : 00a8;
    10 : 0000;
    11 : 00a8;
    12   : 0000;
    13 : 00a8;
    14 : 0000;
    15 : 00a8;
    16   : 0000;
    17 : 00a8;
    18 : 0000;
    19 : 00a8;
    20   : 0000;
    21 : 00a8;
    22 : 0000;
    23 : 00a8;
    24   : 0000;
    25 : 00a8;
    26 : 0000;
    27 : 00a8;
    28   : 0000;
    29 : 00a8;
    30 : 0000;
    31 : 00a8;
    32   : 0000;
    33 : 00a8;
    34 : 0000;
    35 : 00a8;
    36   : 0000;
    37 : 00a8;
    38 : 0000;
    39 : 00a8;
    40   : 0000;
    41 : 00a8;
    42 : 0000;
    43 : 00a8;
    44   : 0000;
    45 : 00a8;
    46 : 0000;
    47 : 00a8;
    48   : 0000;
    49 : 00a8;
    50 : 0000;
    51 : 00a8;
    52   : 0000;
    53 : 00a8;
    54 : 0000;
    55 : 00a8;
    56   : 0000;
    57 : 00a8;
    58 : 0000;
    59 : 00a8;
    60   : 0000;
    61 : 00a8;
    62 : 0000;
    63 : 00a8;
    64   : 0000;
    65 : 00a8;
    66 : 0000;
    67 : 00a8;
    68   : 0000;
    69 : 00a8;
    70 : 0000;
    71 : 00a8;
    72   : 0000;
    73 : 00a8;
    74 : 0000;
    75 : 00a8;
    76   : 0000;
    77 : 00a8;
    78 : 0000;
    79 : 00a8;
    80   : 0000;
    81 : 00a8;
    82 : 0000;
    83 : 00a8;
    84   : 0000;
    85 : 00a8;
    86 : 0000;
    87 : 00a8;
    88   : 0000;
    89 : 00a8;
    90 : 0000;
    91 : 00a8;
    92   : 0000;
    93 : 00a8;
    94 : 0000;
    95 : 00a8;
    96   : 0000;
    97 : 00a8;
    98 : 0000;
    99 : 00a8;
    100   : 0000;
    101 : 00a8;
    102 : 0000;
    103 : 00a8;
    104   : 0000;
    105 : 00a8;
    106 : 0000;
    107 : 00a8;
    108   : 0000;
    109 : 00a8;
    110 : 0000;
    111 : 00a8;
    112   : 0000;
    113 : 00a8;
    114 : 0000;
    115 : 00a8;
    116   : 0000;
    117 : 00a8;
    118 : 0000;
    119 : 00a8;
    120   : 0000;
    121 : 00a8;
    122 : 0000;
    123 : 00a8;
    124   : 0000;
    125 : 00a8;
    126 : 0000;
    127 : 00a8;
    128   : 0000;
    129 : 00a8;
    130 : 0000;
    131 : 00a8;
    132   : 0000;
    133 : 00a8;
    134 : 0000;
    135 : 00a8;
    136   : 0000;
    137 : 00a8;
    138 : 0000;
    139 : 00a8;
    140   : 0000;
    141 : 00a8;
    142 : 0000;
    143 : 00a8;
    144   : 0000;
    145 : 00a8;
    146 : 0000;
    147 : 00a8;
    148   : 0000;
    149 : 00a8;
    150 : 0000;
    151 : 00a8;
    152   : 0000;
    153 : 00a8;
    154 : 0000;
    155 : 00a8;
    156   : 0000;
    157 : 00a8;
    158 : 0000;
    159 : 00a8;
    160   : 0000;
    161 : 00a8;
    162 : 0000;
    163 : 00a8;
    164   : 0000;
    165 : 00a8;
    166 : 0000;
    167 : 00a8;
    168   : 0000;
    169 : 00a8;
    170 : 0000;
    171 : 00a8;
    172   : 0000;
    173 : 00a8;
    174 : 0000;
    175 : 00a8;
    176   : 0000;
    177 : 00a8;
    178 : 0000;
    179 : 00a8;
    180   : 0000;
    181 : 00a8;
    182 : 0000;
    183 : 00a8;
    184   : 0000;
    185 : 00a8;
    186 : 0000;
    187 : 00a8;
    188   : 0000;
    189 : 00a8;
    190 : 0000;
    191 : 00a8;
    192   : 0000;
    193 : 00a8;
    194 : 0000;
    195 : 00a8;
    196   : 0000;
    197 : 00a8;
    198 : 0000;
    199 : 00a8;
    200   : 0000;
    201 : 00a8;
    202 : 0000;
    203 : 00a8;
    204   : 0000;
    205 : 00a8;
    206 : 0000;
    207 : 00a8;
    208   : 0000;
    209 : 00a8;
    210 : 0000;
    211 : 00a8;
    212   : 0000;
    213 : 00a8;
    214 : 0000;
    215 : 00a8;
    216   : 0000;
    217 : 00a8;
    218 : 0000;
    219 : 00a8;
    220   : 0000;
    221 : 00a8;
    222 : 0000;
    223 : 00a8;
    224   : 0000;
    225 : 00a8;
    226 : 0000;
    227 : 00a8;
    228   : 0000;
    229 : 00a8;
    230 : 0000;
    231 : 00a8;
    232   : 0000;
    233 : 00a8;
    234 : 0000;
    235 : 00a8;
    236   : 0000;
    237 : 00a8;
    238 : 0000;
    239 : 00a8;
    240   : 0000;
    241 : 00a8;
    242 : 0000;
    243 : 00a8;
    244   : 0000;
    245 : 00a8;
    246 : 0000;
    247 : 00a8;
    248   : 0000;
    249 : 00a8;
    250 : 0000;
    251 : 00a8;
    252   : 0000;
    253 : 00a8;
    254 : 0000;
    255 : 00a8;
END;
