WIDTH=16;
DEPTH=256;
ADDRESS_RADIX=UNS;
DATA_RADIX=HEX;
CONTENT BEGIN
    0   : 0000;
    1 : 00fc;
    2 : 0000;
    3 : 00fc;
    4   : 0000;
    5 : 00fc;
    6 : 0000;
    7 : 00fc;
    8   : 0000;
    9 : 00fc;
    10 : 0000;
    11 : 00fc;
    12   : 0000;
    13 : 00fc;
    14 : 0000;
    15 : 00fc;
    16   : 0000;
    17 : 00fc;
    18 : 0000;
    19 : 00fc;
    20   : 0000;
    21 : 00fc;
    22 : 0000;
    23 : 00fc;
    24   : 0000;
    25 : 00fc;
    26 : 0000;
    27 : 00fc;
    28   : 0000;
    29 : 00fc;
    30 : 0000;
    31 : 00fc;
    32   : 0000;
    33 : 00fc;
    34 : 0000;
    35 : 00fc;
    36   : 0000;
    37 : 00fc;
    38 : 0000;
    39 : 00fc;
    40   : 0000;
    41 : 00fc;
    42 : 0000;
    43 : 00fc;
    44   : 0000;
    45 : 00fc;
    46 : 0000;
    47 : 00fc;
    48   : 0000;
    49 : 00fc;
    50 : 0000;
    51 : 00fc;
    52   : 0000;
    53 : 00fc;
    54 : 0000;
    55 : 00fc;
    56   : 0000;
    57 : 00fc;
    58 : 0000;
    59 : 00fc;
    60   : 0000;
    61 : 00fc;
    62 : 0000;
    63 : 00fc;
    64   : 0000;
    65 : 00fc;
    66 : 0000;
    67 : 00fc;
    68   : 0000;
    69 : 00fc;
    70 : 0000;
    71 : 00fc;
    72   : 0000;
    73 : 00fc;
    74 : 0000;
    75 : 00fc;
    76   : 0000;
    77 : 00fc;
    78 : 0000;
    79 : 00fc;
    80   : 0000;
    81 : 00fc;
    82 : 0000;
    83 : 00fc;
    84   : 0000;
    85 : 00fc;
    86 : 0000;
    87 : 00fc;
    88   : 0000;
    89 : 00fc;
    90 : 0000;
    91 : 00fc;
    92   : 0000;
    93 : 00fc;
    94 : 0000;
    95 : 00fc;
    96   : 0000;
    97 : 00fc;
    98 : 0000;
    99 : 00fc;
    100   : 0000;
    101 : 00fc;
    102 : 0000;
    103 : 00fc;
    104   : 0000;
    105 : 00fc;
    106 : 0000;
    107 : 00fc;
    108   : 0000;
    109 : 00fc;
    110 : 0000;
    111 : 00fc;
    112   : 0000;
    113 : 00fc;
    114 : 0000;
    115 : 00fc;
    116   : 0000;
    117 : 00fc;
    118 : 0000;
    119 : 00fc;
    120   : 0000;
    121 : 00fc;
    122 : 0000;
    123 : 00fc;
    124   : 0000;
    125 : 00fc;
    126 : 0000;
    127 : 00fc;
    128   : 0000;
    129 : 00fc;
    130 : 0000;
    131 : 00fc;
    132   : 0000;
    133 : 00fc;
    134 : 0000;
    135 : 00fc;
    136   : 0000;
    137 : 00fc;
    138 : 0000;
    139 : 00fc;
    140   : 0000;
    141 : 00fc;
    142 : 0000;
    143 : 00fc;
    144   : 0000;
    145 : 00fc;
    146 : 0000;
    147 : 00fc;
    148   : 0000;
    149 : 00fc;
    150 : 0000;
    151 : 00fc;
    152   : 0000;
    153 : 00fc;
    154 : 0000;
    155 : 00fc;
    156   : 0000;
    157 : 00fc;
    158 : 0000;
    159 : 00fc;
    160   : 0000;
    161 : 00fc;
    162 : 0000;
    163 : 00fc;
    164   : 0000;
    165 : 00fc;
    166 : 0000;
    167 : 00fc;
    168   : 0000;
    169 : 00fc;
    170 : 0000;
    171 : 00fc;
    172   : 0000;
    173 : 00fc;
    174 : 0000;
    175 : 00fc;
    176   : 0000;
    177 : 00fc;
    178 : 0000;
    179 : 00fc;
    180   : 0000;
    181 : 00fc;
    182 : 0000;
    183 : 00fc;
    184   : 0000;
    185 : 00fc;
    186 : 0000;
    187 : 00fc;
    188   : 0000;
    189 : 00fc;
    190 : 0000;
    191 : 00fc;
    192   : 0000;
    193 : 00fc;
    194 : 0000;
    195 : 00fc;
    196   : 0000;
    197 : 00fc;
    198 : 0000;
    199 : 00fc;
    200   : 0000;
    201 : 00fc;
    202 : 0000;
    203 : 00fc;
    204   : 0000;
    205 : 00fc;
    206 : 0000;
    207 : 00fc;
    208   : 0000;
    209 : 00fc;
    210 : 0000;
    211 : 00fc;
    212   : 0000;
    213 : 00fc;
    214 : 0000;
    215 : 00fc;
    216   : 0000;
    217 : 00fc;
    218 : 0000;
    219 : 00fc;
    220   : 0000;
    221 : 00fc;
    222 : 0000;
    223 : 00fc;
    224   : 0000;
    225 : 00fc;
    226 : 0000;
    227 : 00fc;
    228   : 0000;
    229 : 00fc;
    230 : 0000;
    231 : 00fc;
    232   : 0000;
    233 : 00fc;
    234 : 0000;
    235 : 00fc;
    236   : 0000;
    237 : 00fc;
    238 : 0000;
    239 : 00fc;
    240   : 0000;
    241 : 00fc;
    242 : 0000;
    243 : 00fc;
    244   : 0000;
    245 : 00fc;
    246 : 0000;
    247 : 00fc;
    248   : 0000;
    249 : 00fc;
    250 : 0000;
    251 : 00fc;
    252   : 0000;
    253 : 00fc;
    254 : 0000;
    255 : 00fc;
END;
