WIDTH=16;
DEPTH=256;
ADDRESS_RADIX=UNS;
DATA_RADIX=HEX;
CONTENT BEGIN
    0   : 0000;
    1 : 00ee;
    2 : 0000;
    3 : 00ee;
    4   : 0000;
    5 : 00ee;
    6 : 0000;
    7 : 00ee;
    8   : 0000;
    9 : 00ee;
    10 : 0000;
    11 : 00ee;
    12   : 0000;
    13 : 00ee;
    14 : 0000;
    15 : 00ee;
    16   : 0000;
    17 : 00ee;
    18 : 0000;
    19 : 00ee;
    20   : 0000;
    21 : 00ee;
    22 : 0000;
    23 : 00ee;
    24   : 0000;
    25 : 00ee;
    26 : 0000;
    27 : 00ee;
    28   : 0000;
    29 : 00ee;
    30 : 0000;
    31 : 00ee;
    32   : 0000;
    33 : 00ee;
    34 : 0000;
    35 : 00ee;
    36   : 0000;
    37 : 00ee;
    38 : 0000;
    39 : 00ee;
    40   : 0000;
    41 : 00ee;
    42 : 0000;
    43 : 00ee;
    44   : 0000;
    45 : 00ee;
    46 : 0000;
    47 : 00ee;
    48   : 0000;
    49 : 00ee;
    50 : 0000;
    51 : 00ee;
    52   : 0000;
    53 : 00ee;
    54 : 0000;
    55 : 00ee;
    56   : 0000;
    57 : 00ee;
    58 : 0000;
    59 : 00ee;
    60   : 0000;
    61 : 00ee;
    62 : 0000;
    63 : 00ee;
    64   : 0000;
    65 : 00ee;
    66 : 0000;
    67 : 00ee;
    68   : 0000;
    69 : 00ee;
    70 : 0000;
    71 : 00ee;
    72   : 0000;
    73 : 00ee;
    74 : 0000;
    75 : 00ee;
    76   : 0000;
    77 : 00ee;
    78 : 0000;
    79 : 00ee;
    80   : 0000;
    81 : 00ee;
    82 : 0000;
    83 : 00ee;
    84   : 0000;
    85 : 00ee;
    86 : 0000;
    87 : 00ee;
    88   : 0000;
    89 : 00ee;
    90 : 0000;
    91 : 00ee;
    92   : 0000;
    93 : 00ee;
    94 : 0000;
    95 : 00ee;
    96   : 0000;
    97 : 00ee;
    98 : 0000;
    99 : 00ee;
    100   : 0000;
    101 : 00ee;
    102 : 0000;
    103 : 00ee;
    104   : 0000;
    105 : 00ee;
    106 : 0000;
    107 : 00ee;
    108   : 0000;
    109 : 00ee;
    110 : 0000;
    111 : 00ee;
    112   : 0000;
    113 : 00ee;
    114 : 0000;
    115 : 00ee;
    116   : 0000;
    117 : 00ee;
    118 : 0000;
    119 : 00ee;
    120   : 0000;
    121 : 00ee;
    122 : 0000;
    123 : 00ee;
    124   : 0000;
    125 : 00ee;
    126 : 0000;
    127 : 00ee;
    128   : 0000;
    129 : 00ee;
    130 : 0000;
    131 : 00ee;
    132   : 0000;
    133 : 00ee;
    134 : 0000;
    135 : 00ee;
    136   : 0000;
    137 : 00ee;
    138 : 0000;
    139 : 00ee;
    140   : 0000;
    141 : 00ee;
    142 : 0000;
    143 : 00ee;
    144   : 0000;
    145 : 00ee;
    146 : 0000;
    147 : 00ee;
    148   : 0000;
    149 : 00ee;
    150 : 0000;
    151 : 00ee;
    152   : 0000;
    153 : 00ee;
    154 : 0000;
    155 : 00ee;
    156   : 0000;
    157 : 00ee;
    158 : 0000;
    159 : 00ee;
    160   : 0000;
    161 : 00ee;
    162 : 0000;
    163 : 00ee;
    164   : 0000;
    165 : 00ee;
    166 : 0000;
    167 : 00ee;
    168   : 0000;
    169 : 00ee;
    170 : 0000;
    171 : 00ee;
    172   : 0000;
    173 : 00ee;
    174 : 0000;
    175 : 00ee;
    176   : 0000;
    177 : 00ee;
    178 : 0000;
    179 : 00ee;
    180   : 0000;
    181 : 00ee;
    182 : 0000;
    183 : 00ee;
    184   : 0000;
    185 : 00ee;
    186 : 0000;
    187 : 00ee;
    188   : 0000;
    189 : 00ee;
    190 : 0000;
    191 : 00ee;
    192   : 0000;
    193 : 00ee;
    194 : 0000;
    195 : 00ee;
    196   : 0000;
    197 : 00ee;
    198 : 0000;
    199 : 00ee;
    200   : 0000;
    201 : 00ee;
    202 : 0000;
    203 : 00ee;
    204   : 0000;
    205 : 00ee;
    206 : 0000;
    207 : 00ee;
    208   : 0000;
    209 : 00ee;
    210 : 0000;
    211 : 00ee;
    212   : 0000;
    213 : 00ee;
    214 : 0000;
    215 : 00ee;
    216   : 0000;
    217 : 00ee;
    218 : 0000;
    219 : 00ee;
    220   : 0000;
    221 : 00ee;
    222 : 0000;
    223 : 00ee;
    224   : 0000;
    225 : 00ee;
    226 : 0000;
    227 : 00ee;
    228   : 0000;
    229 : 00ee;
    230 : 0000;
    231 : 00ee;
    232   : 0000;
    233 : 00ee;
    234 : 0000;
    235 : 00ee;
    236   : 0000;
    237 : 00ee;
    238 : 0000;
    239 : 00ee;
    240   : 0000;
    241 : 00ee;
    242 : 0000;
    243 : 00ee;
    244   : 0000;
    245 : 00ee;
    246 : 0000;
    247 : 00ee;
    248   : 0000;
    249 : 00ee;
    250 : 0000;
    251 : 00ee;
    252   : 0000;
    253 : 00ee;
    254 : 0000;
    255 : 00ee;
END;
