WIDTH=16;
DEPTH=256;
ADDRESS_RADIX=UNS;
DATA_RADIX=HEX;
CONTENT BEGIN
    0   : 0000;
    1 : 00c4;
    2 : 0000;
    3 : 00c4;
    4   : 0000;
    5 : 00c4;
    6 : 0000;
    7 : 00c4;
    8   : 0000;
    9 : 00c4;
    10 : 0000;
    11 : 00c4;
    12   : 0000;
    13 : 00c4;
    14 : 0000;
    15 : 00c4;
    16   : 0000;
    17 : 00c4;
    18 : 0000;
    19 : 00c4;
    20   : 0000;
    21 : 00c4;
    22 : 0000;
    23 : 00c4;
    24   : 0000;
    25 : 00c4;
    26 : 0000;
    27 : 00c4;
    28   : 0000;
    29 : 00c4;
    30 : 0000;
    31 : 00c4;
    32   : 0000;
    33 : 00c4;
    34 : 0000;
    35 : 00c4;
    36   : 0000;
    37 : 00c4;
    38 : 0000;
    39 : 00c4;
    40   : 0000;
    41 : 00c4;
    42 : 0000;
    43 : 00c4;
    44   : 0000;
    45 : 00c4;
    46 : 0000;
    47 : 00c4;
    48   : 0000;
    49 : 00c4;
    50 : 0000;
    51 : 00c4;
    52   : 0000;
    53 : 00c4;
    54 : 0000;
    55 : 00c4;
    56   : 0000;
    57 : 00c4;
    58 : 0000;
    59 : 00c4;
    60   : 0000;
    61 : 00c4;
    62 : 0000;
    63 : 00c4;
    64   : 0000;
    65 : 00c4;
    66 : 0000;
    67 : 00c4;
    68   : 0000;
    69 : 00c4;
    70 : 0000;
    71 : 00c4;
    72   : 0000;
    73 : 00c4;
    74 : 0000;
    75 : 00c4;
    76   : 0000;
    77 : 00c4;
    78 : 0000;
    79 : 00c4;
    80   : 0000;
    81 : 00c4;
    82 : 0000;
    83 : 00c4;
    84   : 0000;
    85 : 00c4;
    86 : 0000;
    87 : 00c4;
    88   : 0000;
    89 : 00c4;
    90 : 0000;
    91 : 00c4;
    92   : 0000;
    93 : 00c4;
    94 : 0000;
    95 : 00c4;
    96   : 0000;
    97 : 00c4;
    98 : 0000;
    99 : 00c4;
    100   : 0000;
    101 : 00c4;
    102 : 0000;
    103 : 00c4;
    104   : 0000;
    105 : 00c4;
    106 : 0000;
    107 : 00c4;
    108   : 0000;
    109 : 00c4;
    110 : 0000;
    111 : 00c4;
    112   : 0000;
    113 : 00c4;
    114 : 0000;
    115 : 00c4;
    116   : 0000;
    117 : 00c4;
    118 : 0000;
    119 : 00c4;
    120   : 0000;
    121 : 00c4;
    122 : 0000;
    123 : 00c4;
    124   : 0000;
    125 : 00c4;
    126 : 0000;
    127 : 00c4;
    128   : 0000;
    129 : 00c4;
    130 : 0000;
    131 : 00c4;
    132   : 0000;
    133 : 00c4;
    134 : 0000;
    135 : 00c4;
    136   : 0000;
    137 : 00c4;
    138 : 0000;
    139 : 00c4;
    140   : 0000;
    141 : 00c4;
    142 : 0000;
    143 : 00c4;
    144   : 0000;
    145 : 00c4;
    146 : 0000;
    147 : 00c4;
    148   : 0000;
    149 : 00c4;
    150 : 0000;
    151 : 00c4;
    152   : 0000;
    153 : 00c4;
    154 : 0000;
    155 : 00c4;
    156   : 0000;
    157 : 00c4;
    158 : 0000;
    159 : 00c4;
    160   : 0000;
    161 : 00c4;
    162 : 0000;
    163 : 00c4;
    164   : 0000;
    165 : 00c4;
    166 : 0000;
    167 : 00c4;
    168   : 0000;
    169 : 00c4;
    170 : 0000;
    171 : 00c4;
    172   : 0000;
    173 : 00c4;
    174 : 0000;
    175 : 00c4;
    176   : 0000;
    177 : 00c4;
    178 : 0000;
    179 : 00c4;
    180   : 0000;
    181 : 00c4;
    182 : 0000;
    183 : 00c4;
    184   : 0000;
    185 : 00c4;
    186 : 0000;
    187 : 00c4;
    188   : 0000;
    189 : 00c4;
    190 : 0000;
    191 : 00c4;
    192   : 0000;
    193 : 00c4;
    194 : 0000;
    195 : 00c4;
    196   : 0000;
    197 : 00c4;
    198 : 0000;
    199 : 00c4;
    200   : 0000;
    201 : 00c4;
    202 : 0000;
    203 : 00c4;
    204   : 0000;
    205 : 00c4;
    206 : 0000;
    207 : 00c4;
    208   : 0000;
    209 : 00c4;
    210 : 0000;
    211 : 00c4;
    212   : 0000;
    213 : 00c4;
    214 : 0000;
    215 : 00c4;
    216   : 0000;
    217 : 00c4;
    218 : 0000;
    219 : 00c4;
    220   : 0000;
    221 : 00c4;
    222 : 0000;
    223 : 00c4;
    224   : 0000;
    225 : 00c4;
    226 : 0000;
    227 : 00c4;
    228   : 0000;
    229 : 00c4;
    230 : 0000;
    231 : 00c4;
    232   : 0000;
    233 : 00c4;
    234 : 0000;
    235 : 00c4;
    236   : 0000;
    237 : 00c4;
    238 : 0000;
    239 : 00c4;
    240   : 0000;
    241 : 00c4;
    242 : 0000;
    243 : 00c4;
    244   : 0000;
    245 : 00c4;
    246 : 0000;
    247 : 00c4;
    248   : 0000;
    249 : 00c4;
    250 : 0000;
    251 : 00c4;
    252   : 0000;
    253 : 00c4;
    254 : 0000;
    255 : 00c4;
END;
