WIDTH=16;
DEPTH=256;
ADDRESS_RADIX=UNS;
DATA_RADIX=HEX;
CONTENT BEGIN
    0   : 0000;
    1 : 00f4;
    2 : 0000;
    3 : 00f4;
    4   : 0000;
    5 : 00f4;
    6 : 0000;
    7 : 00f4;
    8   : 0000;
    9 : 00f4;
    10 : 0000;
    11 : 00f4;
    12   : 0000;
    13 : 00f4;
    14 : 0000;
    15 : 00f4;
    16   : 0000;
    17 : 00f4;
    18 : 0000;
    19 : 00f4;
    20   : 0000;
    21 : 00f4;
    22 : 0000;
    23 : 00f4;
    24   : 0000;
    25 : 00f4;
    26 : 0000;
    27 : 00f4;
    28   : 0000;
    29 : 00f4;
    30 : 0000;
    31 : 00f4;
    32   : 0000;
    33 : 00f4;
    34 : 0000;
    35 : 00f4;
    36   : 0000;
    37 : 00f4;
    38 : 0000;
    39 : 00f4;
    40   : 0000;
    41 : 00f4;
    42 : 0000;
    43 : 00f4;
    44   : 0000;
    45 : 00f4;
    46 : 0000;
    47 : 00f4;
    48   : 0000;
    49 : 00f4;
    50 : 0000;
    51 : 00f4;
    52   : 0000;
    53 : 00f4;
    54 : 0000;
    55 : 00f4;
    56   : 0000;
    57 : 00f4;
    58 : 0000;
    59 : 00f4;
    60   : 0000;
    61 : 00f4;
    62 : 0000;
    63 : 00f4;
    64   : 0000;
    65 : 00f4;
    66 : 0000;
    67 : 00f4;
    68   : 0000;
    69 : 00f4;
    70 : 0000;
    71 : 00f4;
    72   : 0000;
    73 : 00f4;
    74 : 0000;
    75 : 00f4;
    76   : 0000;
    77 : 00f4;
    78 : 0000;
    79 : 00f4;
    80   : 0000;
    81 : 00f4;
    82 : 0000;
    83 : 00f4;
    84   : 0000;
    85 : 00f4;
    86 : 0000;
    87 : 00f4;
    88   : 0000;
    89 : 00f4;
    90 : 0000;
    91 : 00f4;
    92   : 0000;
    93 : 00f4;
    94 : 0000;
    95 : 00f4;
    96   : 0000;
    97 : 00f4;
    98 : 0000;
    99 : 00f4;
    100   : 0000;
    101 : 00f4;
    102 : 0000;
    103 : 00f4;
    104   : 0000;
    105 : 00f4;
    106 : 0000;
    107 : 00f4;
    108   : 0000;
    109 : 00f4;
    110 : 0000;
    111 : 00f4;
    112   : 0000;
    113 : 00f4;
    114 : 0000;
    115 : 00f4;
    116   : 0000;
    117 : 00f4;
    118 : 0000;
    119 : 00f4;
    120   : 0000;
    121 : 00f4;
    122 : 0000;
    123 : 00f4;
    124   : 0000;
    125 : 00f4;
    126 : 0000;
    127 : 00f4;
    128   : 0000;
    129 : 00f4;
    130 : 0000;
    131 : 00f4;
    132   : 0000;
    133 : 00f4;
    134 : 0000;
    135 : 00f4;
    136   : 0000;
    137 : 00f4;
    138 : 0000;
    139 : 00f4;
    140   : 0000;
    141 : 00f4;
    142 : 0000;
    143 : 00f4;
    144   : 0000;
    145 : 00f4;
    146 : 0000;
    147 : 00f4;
    148   : 0000;
    149 : 00f4;
    150 : 0000;
    151 : 00f4;
    152   : 0000;
    153 : 00f4;
    154 : 0000;
    155 : 00f4;
    156   : 0000;
    157 : 00f4;
    158 : 0000;
    159 : 00f4;
    160   : 0000;
    161 : 00f4;
    162 : 0000;
    163 : 00f4;
    164   : 0000;
    165 : 00f4;
    166 : 0000;
    167 : 00f4;
    168   : 0000;
    169 : 00f4;
    170 : 0000;
    171 : 00f4;
    172   : 0000;
    173 : 00f4;
    174 : 0000;
    175 : 00f4;
    176   : 0000;
    177 : 00f4;
    178 : 0000;
    179 : 00f4;
    180   : 0000;
    181 : 00f4;
    182 : 0000;
    183 : 00f4;
    184   : 0000;
    185 : 00f4;
    186 : 0000;
    187 : 00f4;
    188   : 0000;
    189 : 00f4;
    190 : 0000;
    191 : 00f4;
    192   : 0000;
    193 : 00f4;
    194 : 0000;
    195 : 00f4;
    196   : 0000;
    197 : 00f4;
    198 : 0000;
    199 : 00f4;
    200   : 0000;
    201 : 00f4;
    202 : 0000;
    203 : 00f4;
    204   : 0000;
    205 : 00f4;
    206 : 0000;
    207 : 00f4;
    208   : 0000;
    209 : 00f4;
    210 : 0000;
    211 : 00f4;
    212   : 0000;
    213 : 00f4;
    214 : 0000;
    215 : 00f4;
    216   : 0000;
    217 : 00f4;
    218 : 0000;
    219 : 00f4;
    220   : 0000;
    221 : 00f4;
    222 : 0000;
    223 : 00f4;
    224   : 0000;
    225 : 00f4;
    226 : 0000;
    227 : 00f4;
    228   : 0000;
    229 : 00f4;
    230 : 0000;
    231 : 00f4;
    232   : 0000;
    233 : 00f4;
    234 : 0000;
    235 : 00f4;
    236   : 0000;
    237 : 00f4;
    238 : 0000;
    239 : 00f4;
    240   : 0000;
    241 : 00f4;
    242 : 0000;
    243 : 00f4;
    244   : 0000;
    245 : 00f4;
    246 : 0000;
    247 : 00f4;
    248   : 0000;
    249 : 00f4;
    250 : 0000;
    251 : 00f4;
    252   : 0000;
    253 : 00f4;
    254 : 0000;
    255 : 00f4;
END;
