WIDTH=16;
DEPTH=256;
ADDRESS_RADIX=UNS;
DATA_RADIX=HEX;
CONTENT BEGIN
    0   : 0000;
    1 : 00f8;
    2 : 0000;
    3 : 00f8;
    4   : 0000;
    5 : 00f8;
    6 : 0000;
    7 : 00f8;
    8   : 0000;
    9 : 00f8;
    10 : 0000;
    11 : 00f8;
    12   : 0000;
    13 : 00f8;
    14 : 0000;
    15 : 00f8;
    16   : 0000;
    17 : 00f8;
    18 : 0000;
    19 : 00f8;
    20   : 0000;
    21 : 00f8;
    22 : 0000;
    23 : 00f8;
    24   : 0000;
    25 : 00f8;
    26 : 0000;
    27 : 00f8;
    28   : 0000;
    29 : 00f8;
    30 : 0000;
    31 : 00f8;
    32   : 0000;
    33 : 00f8;
    34 : 0000;
    35 : 00f8;
    36   : 0000;
    37 : 00f8;
    38 : 0000;
    39 : 00f8;
    40   : 0000;
    41 : 00f8;
    42 : 0000;
    43 : 00f8;
    44   : 0000;
    45 : 00f8;
    46 : 0000;
    47 : 00f8;
    48   : 0000;
    49 : 00f8;
    50 : 0000;
    51 : 00f8;
    52   : 0000;
    53 : 00f8;
    54 : 0000;
    55 : 00f8;
    56   : 0000;
    57 : 00f8;
    58 : 0000;
    59 : 00f8;
    60   : 0000;
    61 : 00f8;
    62 : 0000;
    63 : 00f8;
    64   : 0000;
    65 : 00f8;
    66 : 0000;
    67 : 00f8;
    68   : 0000;
    69 : 00f8;
    70 : 0000;
    71 : 00f8;
    72   : 0000;
    73 : 00f8;
    74 : 0000;
    75 : 00f8;
    76   : 0000;
    77 : 00f8;
    78 : 0000;
    79 : 00f8;
    80   : 0000;
    81 : 00f8;
    82 : 0000;
    83 : 00f8;
    84   : 0000;
    85 : 00f8;
    86 : 0000;
    87 : 00f8;
    88   : 0000;
    89 : 00f8;
    90 : 0000;
    91 : 00f8;
    92   : 0000;
    93 : 00f8;
    94 : 0000;
    95 : 00f8;
    96   : 0000;
    97 : 00f8;
    98 : 0000;
    99 : 00f8;
    100   : 0000;
    101 : 00f8;
    102 : 0000;
    103 : 00f8;
    104   : 0000;
    105 : 00f8;
    106 : 0000;
    107 : 00f8;
    108   : 0000;
    109 : 00f8;
    110 : 0000;
    111 : 00f8;
    112   : 0000;
    113 : 00f8;
    114 : 0000;
    115 : 00f8;
    116   : 0000;
    117 : 00f8;
    118 : 0000;
    119 : 00f8;
    120   : 0000;
    121 : 00f8;
    122 : 0000;
    123 : 00f8;
    124   : 0000;
    125 : 00f8;
    126 : 0000;
    127 : 00f8;
    128   : 0000;
    129 : 00f8;
    130 : 0000;
    131 : 00f8;
    132   : 0000;
    133 : 00f8;
    134 : 0000;
    135 : 00f8;
    136   : 0000;
    137 : 00f8;
    138 : 0000;
    139 : 00f8;
    140   : 0000;
    141 : 00f8;
    142 : 0000;
    143 : 00f8;
    144   : 0000;
    145 : 00f8;
    146 : 0000;
    147 : 00f8;
    148   : 0000;
    149 : 00f8;
    150 : 0000;
    151 : 00f8;
    152   : 0000;
    153 : 00f8;
    154 : 0000;
    155 : 00f8;
    156   : 0000;
    157 : 00f8;
    158 : 0000;
    159 : 00f8;
    160   : 0000;
    161 : 00f8;
    162 : 0000;
    163 : 00f8;
    164   : 0000;
    165 : 00f8;
    166 : 0000;
    167 : 00f8;
    168   : 0000;
    169 : 00f8;
    170 : 0000;
    171 : 00f8;
    172   : 0000;
    173 : 00f8;
    174 : 0000;
    175 : 00f8;
    176   : 0000;
    177 : 00f8;
    178 : 0000;
    179 : 00f8;
    180   : 0000;
    181 : 00f8;
    182 : 0000;
    183 : 00f8;
    184   : 0000;
    185 : 00f8;
    186 : 0000;
    187 : 00f8;
    188   : 0000;
    189 : 00f8;
    190 : 0000;
    191 : 00f8;
    192   : 0000;
    193 : 00f8;
    194 : 0000;
    195 : 00f8;
    196   : 0000;
    197 : 00f8;
    198 : 0000;
    199 : 00f8;
    200   : 0000;
    201 : 00f8;
    202 : 0000;
    203 : 00f8;
    204   : 0000;
    205 : 00f8;
    206 : 0000;
    207 : 00f8;
    208   : 0000;
    209 : 00f8;
    210 : 0000;
    211 : 00f8;
    212   : 0000;
    213 : 00f8;
    214 : 0000;
    215 : 00f8;
    216   : 0000;
    217 : 00f8;
    218 : 0000;
    219 : 00f8;
    220   : 0000;
    221 : 00f8;
    222 : 0000;
    223 : 00f8;
    224   : 0000;
    225 : 00f8;
    226 : 0000;
    227 : 00f8;
    228   : 0000;
    229 : 00f8;
    230 : 0000;
    231 : 00f8;
    232   : 0000;
    233 : 00f8;
    234 : 0000;
    235 : 00f8;
    236   : 0000;
    237 : 00f8;
    238 : 0000;
    239 : 00f8;
    240   : 0000;
    241 : 00f8;
    242 : 0000;
    243 : 00f8;
    244   : 0000;
    245 : 00f8;
    246 : 0000;
    247 : 00f8;
    248   : 0000;
    249 : 00f8;
    250 : 0000;
    251 : 00f8;
    252   : 0000;
    253 : 00f8;
    254 : 0000;
    255 : 00f8;
END;
