WIDTH=16;
DEPTH=256;
ADDRESS_RADIX=UNS;
DATA_RADIX=HEX;
CONTENT BEGIN
    0   : 0000;
    1 : 00ce;
    2 : 0000;
    3 : 00ce;
    4   : 0000;
    5 : 00ce;
    6 : 0000;
    7 : 00ce;
    8   : 0000;
    9 : 00ce;
    10 : 0000;
    11 : 00ce;
    12   : 0000;
    13 : 00ce;
    14 : 0000;
    15 : 00ce;
    16   : 0000;
    17 : 00ce;
    18 : 0000;
    19 : 00ce;
    20   : 0000;
    21 : 00ce;
    22 : 0000;
    23 : 00ce;
    24   : 0000;
    25 : 00ce;
    26 : 0000;
    27 : 00ce;
    28   : 0000;
    29 : 00ce;
    30 : 0000;
    31 : 00ce;
    32   : 0000;
    33 : 00ce;
    34 : 0000;
    35 : 00ce;
    36   : 0000;
    37 : 00ce;
    38 : 0000;
    39 : 00ce;
    40   : 0000;
    41 : 00ce;
    42 : 0000;
    43 : 00ce;
    44   : 0000;
    45 : 00ce;
    46 : 0000;
    47 : 00ce;
    48   : 0000;
    49 : 00ce;
    50 : 0000;
    51 : 00ce;
    52   : 0000;
    53 : 00ce;
    54 : 0000;
    55 : 00ce;
    56   : 0000;
    57 : 00ce;
    58 : 0000;
    59 : 00ce;
    60   : 0000;
    61 : 00ce;
    62 : 0000;
    63 : 00ce;
    64   : 0000;
    65 : 00ce;
    66 : 0000;
    67 : 00ce;
    68   : 0000;
    69 : 00ce;
    70 : 0000;
    71 : 00ce;
    72   : 0000;
    73 : 00ce;
    74 : 0000;
    75 : 00ce;
    76   : 0000;
    77 : 00ce;
    78 : 0000;
    79 : 00ce;
    80   : 0000;
    81 : 00ce;
    82 : 0000;
    83 : 00ce;
    84   : 0000;
    85 : 00ce;
    86 : 0000;
    87 : 00ce;
    88   : 0000;
    89 : 00ce;
    90 : 0000;
    91 : 00ce;
    92   : 0000;
    93 : 00ce;
    94 : 0000;
    95 : 00ce;
    96   : 0000;
    97 : 00ce;
    98 : 0000;
    99 : 00ce;
    100   : 0000;
    101 : 00ce;
    102 : 0000;
    103 : 00ce;
    104   : 0000;
    105 : 00ce;
    106 : 0000;
    107 : 00ce;
    108   : 0000;
    109 : 00ce;
    110 : 0000;
    111 : 00ce;
    112   : 0000;
    113 : 00ce;
    114 : 0000;
    115 : 00ce;
    116   : 0000;
    117 : 00ce;
    118 : 0000;
    119 : 00ce;
    120   : 0000;
    121 : 00ce;
    122 : 0000;
    123 : 00ce;
    124   : 0000;
    125 : 00ce;
    126 : 0000;
    127 : 00ce;
    128   : 0000;
    129 : 00ce;
    130 : 0000;
    131 : 00ce;
    132   : 0000;
    133 : 00ce;
    134 : 0000;
    135 : 00ce;
    136   : 0000;
    137 : 00ce;
    138 : 0000;
    139 : 00ce;
    140   : 0000;
    141 : 00ce;
    142 : 0000;
    143 : 00ce;
    144   : 0000;
    145 : 00ce;
    146 : 0000;
    147 : 00ce;
    148   : 0000;
    149 : 00ce;
    150 : 0000;
    151 : 00ce;
    152   : 0000;
    153 : 00ce;
    154 : 0000;
    155 : 00ce;
    156   : 0000;
    157 : 00ce;
    158 : 0000;
    159 : 00ce;
    160   : 0000;
    161 : 00ce;
    162 : 0000;
    163 : 00ce;
    164   : 0000;
    165 : 00ce;
    166 : 0000;
    167 : 00ce;
    168   : 0000;
    169 : 00ce;
    170 : 0000;
    171 : 00ce;
    172   : 0000;
    173 : 00ce;
    174 : 0000;
    175 : 00ce;
    176   : 0000;
    177 : 00ce;
    178 : 0000;
    179 : 00ce;
    180   : 0000;
    181 : 00ce;
    182 : 0000;
    183 : 00ce;
    184   : 0000;
    185 : 00ce;
    186 : 0000;
    187 : 00ce;
    188   : 0000;
    189 : 00ce;
    190 : 0000;
    191 : 00ce;
    192   : 0000;
    193 : 00ce;
    194 : 0000;
    195 : 00ce;
    196   : 0000;
    197 : 00ce;
    198 : 0000;
    199 : 00ce;
    200   : 0000;
    201 : 00ce;
    202 : 0000;
    203 : 00ce;
    204   : 0000;
    205 : 00ce;
    206 : 0000;
    207 : 00ce;
    208   : 0000;
    209 : 00ce;
    210 : 0000;
    211 : 00ce;
    212   : 0000;
    213 : 00ce;
    214 : 0000;
    215 : 00ce;
    216   : 0000;
    217 : 00ce;
    218 : 0000;
    219 : 00ce;
    220   : 0000;
    221 : 00ce;
    222 : 0000;
    223 : 00ce;
    224   : 0000;
    225 : 00ce;
    226 : 0000;
    227 : 00ce;
    228   : 0000;
    229 : 00ce;
    230 : 0000;
    231 : 00ce;
    232   : 0000;
    233 : 00ce;
    234 : 0000;
    235 : 00ce;
    236   : 0000;
    237 : 00ce;
    238 : 0000;
    239 : 00ce;
    240   : 0000;
    241 : 00ce;
    242 : 0000;
    243 : 00ce;
    244   : 0000;
    245 : 00ce;
    246 : 0000;
    247 : 00ce;
    248   : 0000;
    249 : 00ce;
    250 : 0000;
    251 : 00ce;
    252   : 0000;
    253 : 00ce;
    254 : 0000;
    255 : 00ce;
END;
