WIDTH=16;
DEPTH=256;
ADDRESS_RADIX=UNS;
DATA_RADIX=HEX;
CONTENT BEGIN
    0   : 0000;
    1 : 008e;
    2 : 0000;
    3 : 008e;
    4   : 0000;
    5 : 008e;
    6 : 0000;
    7 : 008e;
    8   : 0000;
    9 : 008e;
    10 : 0000;
    11 : 008e;
    12   : 0000;
    13 : 008e;
    14 : 0000;
    15 : 008e;
    16   : 0000;
    17 : 008e;
    18 : 0000;
    19 : 008e;
    20   : 0000;
    21 : 008e;
    22 : 0000;
    23 : 008e;
    24   : 0000;
    25 : 008e;
    26 : 0000;
    27 : 008e;
    28   : 0000;
    29 : 008e;
    30 : 0000;
    31 : 008e;
    32   : 0000;
    33 : 008e;
    34 : 0000;
    35 : 008e;
    36   : 0000;
    37 : 008e;
    38 : 0000;
    39 : 008e;
    40   : 0000;
    41 : 008e;
    42 : 0000;
    43 : 008e;
    44   : 0000;
    45 : 008e;
    46 : 0000;
    47 : 008e;
    48   : 0000;
    49 : 008e;
    50 : 0000;
    51 : 008e;
    52   : 0000;
    53 : 008e;
    54 : 0000;
    55 : 008e;
    56   : 0000;
    57 : 008e;
    58 : 0000;
    59 : 008e;
    60   : 0000;
    61 : 008e;
    62 : 0000;
    63 : 008e;
    64   : 0000;
    65 : 008e;
    66 : 0000;
    67 : 008e;
    68   : 0000;
    69 : 008e;
    70 : 0000;
    71 : 008e;
    72   : 0000;
    73 : 008e;
    74 : 0000;
    75 : 008e;
    76   : 0000;
    77 : 008e;
    78 : 0000;
    79 : 008e;
    80   : 0000;
    81 : 008e;
    82 : 0000;
    83 : 008e;
    84   : 0000;
    85 : 008e;
    86 : 0000;
    87 : 008e;
    88   : 0000;
    89 : 008e;
    90 : 0000;
    91 : 008e;
    92   : 0000;
    93 : 008e;
    94 : 0000;
    95 : 008e;
    96   : 0000;
    97 : 008e;
    98 : 0000;
    99 : 008e;
    100   : 0000;
    101 : 008e;
    102 : 0000;
    103 : 008e;
    104   : 0000;
    105 : 008e;
    106 : 0000;
    107 : 008e;
    108   : 0000;
    109 : 008e;
    110 : 0000;
    111 : 008e;
    112   : 0000;
    113 : 008e;
    114 : 0000;
    115 : 008e;
    116   : 0000;
    117 : 008e;
    118 : 0000;
    119 : 008e;
    120   : 0000;
    121 : 008e;
    122 : 0000;
    123 : 008e;
    124   : 0000;
    125 : 008e;
    126 : 0000;
    127 : 008e;
    128   : 0000;
    129 : 008e;
    130 : 0000;
    131 : 008e;
    132   : 0000;
    133 : 008e;
    134 : 0000;
    135 : 008e;
    136   : 0000;
    137 : 008e;
    138 : 0000;
    139 : 008e;
    140   : 0000;
    141 : 008e;
    142 : 0000;
    143 : 008e;
    144   : 0000;
    145 : 008e;
    146 : 0000;
    147 : 008e;
    148   : 0000;
    149 : 008e;
    150 : 0000;
    151 : 008e;
    152   : 0000;
    153 : 008e;
    154 : 0000;
    155 : 008e;
    156   : 0000;
    157 : 008e;
    158 : 0000;
    159 : 008e;
    160   : 0000;
    161 : 008e;
    162 : 0000;
    163 : 008e;
    164   : 0000;
    165 : 008e;
    166 : 0000;
    167 : 008e;
    168   : 0000;
    169 : 008e;
    170 : 0000;
    171 : 008e;
    172   : 0000;
    173 : 008e;
    174 : 0000;
    175 : 008e;
    176   : 0000;
    177 : 008e;
    178 : 0000;
    179 : 008e;
    180   : 0000;
    181 : 008e;
    182 : 0000;
    183 : 008e;
    184   : 0000;
    185 : 008e;
    186 : 0000;
    187 : 008e;
    188   : 0000;
    189 : 008e;
    190 : 0000;
    191 : 008e;
    192   : 0000;
    193 : 008e;
    194 : 0000;
    195 : 008e;
    196   : 0000;
    197 : 008e;
    198 : 0000;
    199 : 008e;
    200   : 0000;
    201 : 008e;
    202 : 0000;
    203 : 008e;
    204   : 0000;
    205 : 008e;
    206 : 0000;
    207 : 008e;
    208   : 0000;
    209 : 008e;
    210 : 0000;
    211 : 008e;
    212   : 0000;
    213 : 008e;
    214 : 0000;
    215 : 008e;
    216   : 0000;
    217 : 008e;
    218 : 0000;
    219 : 008e;
    220   : 0000;
    221 : 008e;
    222 : 0000;
    223 : 008e;
    224   : 0000;
    225 : 008e;
    226 : 0000;
    227 : 008e;
    228   : 0000;
    229 : 008e;
    230 : 0000;
    231 : 008e;
    232   : 0000;
    233 : 008e;
    234 : 0000;
    235 : 008e;
    236   : 0000;
    237 : 008e;
    238 : 0000;
    239 : 008e;
    240   : 0000;
    241 : 008e;
    242 : 0000;
    243 : 008e;
    244   : 0000;
    245 : 008e;
    246 : 0000;
    247 : 008e;
    248   : 0000;
    249 : 008e;
    250 : 0000;
    251 : 008e;
    252   : 0000;
    253 : 008e;
    254 : 0000;
    255 : 008e;
END;
