WIDTH=16;
DEPTH=256;
ADDRESS_RADIX=UNS;
DATA_RADIX=HEX;
CONTENT BEGIN
    0   : 0000;
    1 : 00f0;
    2 : 0000;
    3 : 00f0;
    4   : 0000;
    5 : 00f0;
    6 : 0000;
    7 : 00f0;
    8   : 0000;
    9 : 00f0;
    10 : 0000;
    11 : 00f0;
    12   : 0000;
    13 : 00f0;
    14 : 0000;
    15 : 00f0;
    16   : 0000;
    17 : 00f0;
    18 : 0000;
    19 : 00f0;
    20   : 0000;
    21 : 00f0;
    22 : 0000;
    23 : 00f0;
    24   : 0000;
    25 : 00f0;
    26 : 0000;
    27 : 00f0;
    28   : 0000;
    29 : 00f0;
    30 : 0000;
    31 : 00f0;
    32   : 0000;
    33 : 00f0;
    34 : 0000;
    35 : 00f0;
    36   : 0000;
    37 : 00f0;
    38 : 0000;
    39 : 00f0;
    40   : 0000;
    41 : 00f0;
    42 : 0000;
    43 : 00f0;
    44   : 0000;
    45 : 00f0;
    46 : 0000;
    47 : 00f0;
    48   : 0000;
    49 : 00f0;
    50 : 0000;
    51 : 00f0;
    52   : 0000;
    53 : 00f0;
    54 : 0000;
    55 : 00f0;
    56   : 0000;
    57 : 00f0;
    58 : 0000;
    59 : 00f0;
    60   : 0000;
    61 : 00f0;
    62 : 0000;
    63 : 00f0;
    64   : 0000;
    65 : 00f0;
    66 : 0000;
    67 : 00f0;
    68   : 0000;
    69 : 00f0;
    70 : 0000;
    71 : 00f0;
    72   : 0000;
    73 : 00f0;
    74 : 0000;
    75 : 00f0;
    76   : 0000;
    77 : 00f0;
    78 : 0000;
    79 : 00f0;
    80   : 0000;
    81 : 00f0;
    82 : 0000;
    83 : 00f0;
    84   : 0000;
    85 : 00f0;
    86 : 0000;
    87 : 00f0;
    88   : 0000;
    89 : 00f0;
    90 : 0000;
    91 : 00f0;
    92   : 0000;
    93 : 00f0;
    94 : 0000;
    95 : 00f0;
    96   : 0000;
    97 : 00f0;
    98 : 0000;
    99 : 00f0;
    100   : 0000;
    101 : 00f0;
    102 : 0000;
    103 : 00f0;
    104   : 0000;
    105 : 00f0;
    106 : 0000;
    107 : 00f0;
    108   : 0000;
    109 : 00f0;
    110 : 0000;
    111 : 00f0;
    112   : 0000;
    113 : 00f0;
    114 : 0000;
    115 : 00f0;
    116   : 0000;
    117 : 00f0;
    118 : 0000;
    119 : 00f0;
    120   : 0000;
    121 : 00f0;
    122 : 0000;
    123 : 00f0;
    124   : 0000;
    125 : 00f0;
    126 : 0000;
    127 : 00f0;
    128   : 0000;
    129 : 00f0;
    130 : 0000;
    131 : 00f0;
    132   : 0000;
    133 : 00f0;
    134 : 0000;
    135 : 00f0;
    136   : 0000;
    137 : 00f0;
    138 : 0000;
    139 : 00f0;
    140   : 0000;
    141 : 00f0;
    142 : 0000;
    143 : 00f0;
    144   : 0000;
    145 : 00f0;
    146 : 0000;
    147 : 00f0;
    148   : 0000;
    149 : 00f0;
    150 : 0000;
    151 : 00f0;
    152   : 0000;
    153 : 00f0;
    154 : 0000;
    155 : 00f0;
    156   : 0000;
    157 : 00f0;
    158 : 0000;
    159 : 00f0;
    160   : 0000;
    161 : 00f0;
    162 : 0000;
    163 : 00f0;
    164   : 0000;
    165 : 00f0;
    166 : 0000;
    167 : 00f0;
    168   : 0000;
    169 : 00f0;
    170 : 0000;
    171 : 00f0;
    172   : 0000;
    173 : 00f0;
    174 : 0000;
    175 : 00f0;
    176   : 0000;
    177 : 00f0;
    178 : 0000;
    179 : 00f0;
    180   : 0000;
    181 : 00f0;
    182 : 0000;
    183 : 00f0;
    184   : 0000;
    185 : 00f0;
    186 : 0000;
    187 : 00f0;
    188   : 0000;
    189 : 00f0;
    190 : 0000;
    191 : 00f0;
    192   : 0000;
    193 : 00f0;
    194 : 0000;
    195 : 00f0;
    196   : 0000;
    197 : 00f0;
    198 : 0000;
    199 : 00f0;
    200   : 0000;
    201 : 00f0;
    202 : 0000;
    203 : 00f0;
    204   : 0000;
    205 : 00f0;
    206 : 0000;
    207 : 00f0;
    208   : 0000;
    209 : 00f0;
    210 : 0000;
    211 : 00f0;
    212   : 0000;
    213 : 00f0;
    214 : 0000;
    215 : 00f0;
    216   : 0000;
    217 : 00f0;
    218 : 0000;
    219 : 00f0;
    220   : 0000;
    221 : 00f0;
    222 : 0000;
    223 : 00f0;
    224   : 0000;
    225 : 00f0;
    226 : 0000;
    227 : 00f0;
    228   : 0000;
    229 : 00f0;
    230 : 0000;
    231 : 00f0;
    232   : 0000;
    233 : 00f0;
    234 : 0000;
    235 : 00f0;
    236   : 0000;
    237 : 00f0;
    238 : 0000;
    239 : 00f0;
    240   : 0000;
    241 : 00f0;
    242 : 0000;
    243 : 00f0;
    244   : 0000;
    245 : 00f0;
    246 : 0000;
    247 : 00f0;
    248   : 0000;
    249 : 00f0;
    250 : 0000;
    251 : 00f0;
    252   : 0000;
    253 : 00f0;
    254 : 0000;
    255 : 00f0;
END;
