WIDTH=16;
DEPTH=256;
ADDRESS_RADIX=UNS;
DATA_RADIX=HEX;
CONTENT BEGIN
    0   : 0000;
    1 : 009a;
    2 : 0000;
    3 : 009a;
    4   : 0000;
    5 : 009a;
    6 : 0000;
    7 : 009a;
    8   : 0000;
    9 : 009a;
    10 : 0000;
    11 : 009a;
    12   : 0000;
    13 : 009a;
    14 : 0000;
    15 : 009a;
    16   : 0000;
    17 : 009a;
    18 : 0000;
    19 : 009a;
    20   : 0000;
    21 : 009a;
    22 : 0000;
    23 : 009a;
    24   : 0000;
    25 : 009a;
    26 : 0000;
    27 : 009a;
    28   : 0000;
    29 : 009a;
    30 : 0000;
    31 : 009a;
    32   : 0000;
    33 : 009a;
    34 : 0000;
    35 : 009a;
    36   : 0000;
    37 : 009a;
    38 : 0000;
    39 : 009a;
    40   : 0000;
    41 : 009a;
    42 : 0000;
    43 : 009a;
    44   : 0000;
    45 : 009a;
    46 : 0000;
    47 : 009a;
    48   : 0000;
    49 : 009a;
    50 : 0000;
    51 : 009a;
    52   : 0000;
    53 : 009a;
    54 : 0000;
    55 : 009a;
    56   : 0000;
    57 : 009a;
    58 : 0000;
    59 : 009a;
    60   : 0000;
    61 : 009a;
    62 : 0000;
    63 : 009a;
    64   : 0000;
    65 : 009a;
    66 : 0000;
    67 : 009a;
    68   : 0000;
    69 : 009a;
    70 : 0000;
    71 : 009a;
    72   : 0000;
    73 : 009a;
    74 : 0000;
    75 : 009a;
    76   : 0000;
    77 : 009a;
    78 : 0000;
    79 : 009a;
    80   : 0000;
    81 : 009a;
    82 : 0000;
    83 : 009a;
    84   : 0000;
    85 : 009a;
    86 : 0000;
    87 : 009a;
    88   : 0000;
    89 : 009a;
    90 : 0000;
    91 : 009a;
    92   : 0000;
    93 : 009a;
    94 : 0000;
    95 : 009a;
    96   : 0000;
    97 : 009a;
    98 : 0000;
    99 : 009a;
    100   : 0000;
    101 : 009a;
    102 : 0000;
    103 : 009a;
    104   : 0000;
    105 : 009a;
    106 : 0000;
    107 : 009a;
    108   : 0000;
    109 : 009a;
    110 : 0000;
    111 : 009a;
    112   : 0000;
    113 : 009a;
    114 : 0000;
    115 : 009a;
    116   : 0000;
    117 : 009a;
    118 : 0000;
    119 : 009a;
    120   : 0000;
    121 : 009a;
    122 : 0000;
    123 : 009a;
    124   : 0000;
    125 : 009a;
    126 : 0000;
    127 : 009a;
    128   : 0000;
    129 : 009a;
    130 : 0000;
    131 : 009a;
    132   : 0000;
    133 : 009a;
    134 : 0000;
    135 : 009a;
    136   : 0000;
    137 : 009a;
    138 : 0000;
    139 : 009a;
    140   : 0000;
    141 : 009a;
    142 : 0000;
    143 : 009a;
    144   : 0000;
    145 : 009a;
    146 : 0000;
    147 : 009a;
    148   : 0000;
    149 : 009a;
    150 : 0000;
    151 : 009a;
    152   : 0000;
    153 : 009a;
    154 : 0000;
    155 : 009a;
    156   : 0000;
    157 : 009a;
    158 : 0000;
    159 : 009a;
    160   : 0000;
    161 : 009a;
    162 : 0000;
    163 : 009a;
    164   : 0000;
    165 : 009a;
    166 : 0000;
    167 : 009a;
    168   : 0000;
    169 : 009a;
    170 : 0000;
    171 : 009a;
    172   : 0000;
    173 : 009a;
    174 : 0000;
    175 : 009a;
    176   : 0000;
    177 : 009a;
    178 : 0000;
    179 : 009a;
    180   : 0000;
    181 : 009a;
    182 : 0000;
    183 : 009a;
    184   : 0000;
    185 : 009a;
    186 : 0000;
    187 : 009a;
    188   : 0000;
    189 : 009a;
    190 : 0000;
    191 : 009a;
    192   : 0000;
    193 : 009a;
    194 : 0000;
    195 : 009a;
    196   : 0000;
    197 : 009a;
    198 : 0000;
    199 : 009a;
    200   : 0000;
    201 : 009a;
    202 : 0000;
    203 : 009a;
    204   : 0000;
    205 : 009a;
    206 : 0000;
    207 : 009a;
    208   : 0000;
    209 : 009a;
    210 : 0000;
    211 : 009a;
    212   : 0000;
    213 : 009a;
    214 : 0000;
    215 : 009a;
    216   : 0000;
    217 : 009a;
    218 : 0000;
    219 : 009a;
    220   : 0000;
    221 : 009a;
    222 : 0000;
    223 : 009a;
    224   : 0000;
    225 : 009a;
    226 : 0000;
    227 : 009a;
    228   : 0000;
    229 : 009a;
    230 : 0000;
    231 : 009a;
    232   : 0000;
    233 : 009a;
    234 : 0000;
    235 : 009a;
    236   : 0000;
    237 : 009a;
    238 : 0000;
    239 : 009a;
    240   : 0000;
    241 : 009a;
    242 : 0000;
    243 : 009a;
    244   : 0000;
    245 : 009a;
    246 : 0000;
    247 : 009a;
    248   : 0000;
    249 : 009a;
    250 : 0000;
    251 : 009a;
    252   : 0000;
    253 : 009a;
    254 : 0000;
    255 : 009a;
END;
