WIDTH=16;
DEPTH=256;
ADDRESS_RADIX=UNS;
DATA_RADIX=HEX;
CONTENT BEGIN
    0   : 0000;
    1 : 008c;
    2 : 0000;
    3 : 008c;
    4   : 0000;
    5 : 008c;
    6 : 0000;
    7 : 008c;
    8   : 0000;
    9 : 008c;
    10 : 0000;
    11 : 008c;
    12   : 0000;
    13 : 008c;
    14 : 0000;
    15 : 008c;
    16   : 0000;
    17 : 008c;
    18 : 0000;
    19 : 008c;
    20   : 0000;
    21 : 008c;
    22 : 0000;
    23 : 008c;
    24   : 0000;
    25 : 008c;
    26 : 0000;
    27 : 008c;
    28   : 0000;
    29 : 008c;
    30 : 0000;
    31 : 008c;
    32   : 0000;
    33 : 008c;
    34 : 0000;
    35 : 008c;
    36   : 0000;
    37 : 008c;
    38 : 0000;
    39 : 008c;
    40   : 0000;
    41 : 008c;
    42 : 0000;
    43 : 008c;
    44   : 0000;
    45 : 008c;
    46 : 0000;
    47 : 008c;
    48   : 0000;
    49 : 008c;
    50 : 0000;
    51 : 008c;
    52   : 0000;
    53 : 008c;
    54 : 0000;
    55 : 008c;
    56   : 0000;
    57 : 008c;
    58 : 0000;
    59 : 008c;
    60   : 0000;
    61 : 008c;
    62 : 0000;
    63 : 008c;
    64   : 0000;
    65 : 008c;
    66 : 0000;
    67 : 008c;
    68   : 0000;
    69 : 008c;
    70 : 0000;
    71 : 008c;
    72   : 0000;
    73 : 008c;
    74 : 0000;
    75 : 008c;
    76   : 0000;
    77 : 008c;
    78 : 0000;
    79 : 008c;
    80   : 0000;
    81 : 008c;
    82 : 0000;
    83 : 008c;
    84   : 0000;
    85 : 008c;
    86 : 0000;
    87 : 008c;
    88   : 0000;
    89 : 008c;
    90 : 0000;
    91 : 008c;
    92   : 0000;
    93 : 008c;
    94 : 0000;
    95 : 008c;
    96   : 0000;
    97 : 008c;
    98 : 0000;
    99 : 008c;
    100   : 0000;
    101 : 008c;
    102 : 0000;
    103 : 008c;
    104   : 0000;
    105 : 008c;
    106 : 0000;
    107 : 008c;
    108   : 0000;
    109 : 008c;
    110 : 0000;
    111 : 008c;
    112   : 0000;
    113 : 008c;
    114 : 0000;
    115 : 008c;
    116   : 0000;
    117 : 008c;
    118 : 0000;
    119 : 008c;
    120   : 0000;
    121 : 008c;
    122 : 0000;
    123 : 008c;
    124   : 0000;
    125 : 008c;
    126 : 0000;
    127 : 008c;
    128   : 0000;
    129 : 008c;
    130 : 0000;
    131 : 008c;
    132   : 0000;
    133 : 008c;
    134 : 0000;
    135 : 008c;
    136   : 0000;
    137 : 008c;
    138 : 0000;
    139 : 008c;
    140   : 0000;
    141 : 008c;
    142 : 0000;
    143 : 008c;
    144   : 0000;
    145 : 008c;
    146 : 0000;
    147 : 008c;
    148   : 0000;
    149 : 008c;
    150 : 0000;
    151 : 008c;
    152   : 0000;
    153 : 008c;
    154 : 0000;
    155 : 008c;
    156   : 0000;
    157 : 008c;
    158 : 0000;
    159 : 008c;
    160   : 0000;
    161 : 008c;
    162 : 0000;
    163 : 008c;
    164   : 0000;
    165 : 008c;
    166 : 0000;
    167 : 008c;
    168   : 0000;
    169 : 008c;
    170 : 0000;
    171 : 008c;
    172   : 0000;
    173 : 008c;
    174 : 0000;
    175 : 008c;
    176   : 0000;
    177 : 008c;
    178 : 0000;
    179 : 008c;
    180   : 0000;
    181 : 008c;
    182 : 0000;
    183 : 008c;
    184   : 0000;
    185 : 008c;
    186 : 0000;
    187 : 008c;
    188   : 0000;
    189 : 008c;
    190 : 0000;
    191 : 008c;
    192   : 0000;
    193 : 008c;
    194 : 0000;
    195 : 008c;
    196   : 0000;
    197 : 008c;
    198 : 0000;
    199 : 008c;
    200   : 0000;
    201 : 008c;
    202 : 0000;
    203 : 008c;
    204   : 0000;
    205 : 008c;
    206 : 0000;
    207 : 008c;
    208   : 0000;
    209 : 008c;
    210 : 0000;
    211 : 008c;
    212   : 0000;
    213 : 008c;
    214 : 0000;
    215 : 008c;
    216   : 0000;
    217 : 008c;
    218 : 0000;
    219 : 008c;
    220   : 0000;
    221 : 008c;
    222 : 0000;
    223 : 008c;
    224   : 0000;
    225 : 008c;
    226 : 0000;
    227 : 008c;
    228   : 0000;
    229 : 008c;
    230 : 0000;
    231 : 008c;
    232   : 0000;
    233 : 008c;
    234 : 0000;
    235 : 008c;
    236   : 0000;
    237 : 008c;
    238 : 0000;
    239 : 008c;
    240   : 0000;
    241 : 008c;
    242 : 0000;
    243 : 008c;
    244   : 0000;
    245 : 008c;
    246 : 0000;
    247 : 008c;
    248   : 0000;
    249 : 008c;
    250 : 0000;
    251 : 008c;
    252   : 0000;
    253 : 008c;
    254 : 0000;
    255 : 008c;
END;
