WIDTH=16;
DEPTH=256;
ADDRESS_RADIX=UNS;
DATA_RADIX=HEX;
CONTENT BEGIN
    0   : 0000;
    1 : 00da;
    2 : 0000;
    3 : 00da;
    4   : 0000;
    5 : 00da;
    6 : 0000;
    7 : 00da;
    8   : 0000;
    9 : 00da;
    10 : 0000;
    11 : 00da;
    12   : 0000;
    13 : 00da;
    14 : 0000;
    15 : 00da;
    16   : 0000;
    17 : 00da;
    18 : 0000;
    19 : 00da;
    20   : 0000;
    21 : 00da;
    22 : 0000;
    23 : 00da;
    24   : 0000;
    25 : 00da;
    26 : 0000;
    27 : 00da;
    28   : 0000;
    29 : 00da;
    30 : 0000;
    31 : 00da;
    32   : 0000;
    33 : 00da;
    34 : 0000;
    35 : 00da;
    36   : 0000;
    37 : 00da;
    38 : 0000;
    39 : 00da;
    40   : 0000;
    41 : 00da;
    42 : 0000;
    43 : 00da;
    44   : 0000;
    45 : 00da;
    46 : 0000;
    47 : 00da;
    48   : 0000;
    49 : 00da;
    50 : 0000;
    51 : 00da;
    52   : 0000;
    53 : 00da;
    54 : 0000;
    55 : 00da;
    56   : 0000;
    57 : 00da;
    58 : 0000;
    59 : 00da;
    60   : 0000;
    61 : 00da;
    62 : 0000;
    63 : 00da;
    64   : 0000;
    65 : 00da;
    66 : 0000;
    67 : 00da;
    68   : 0000;
    69 : 00da;
    70 : 0000;
    71 : 00da;
    72   : 0000;
    73 : 00da;
    74 : 0000;
    75 : 00da;
    76   : 0000;
    77 : 00da;
    78 : 0000;
    79 : 00da;
    80   : 0000;
    81 : 00da;
    82 : 0000;
    83 : 00da;
    84   : 0000;
    85 : 00da;
    86 : 0000;
    87 : 00da;
    88   : 0000;
    89 : 00da;
    90 : 0000;
    91 : 00da;
    92   : 0000;
    93 : 00da;
    94 : 0000;
    95 : 00da;
    96   : 0000;
    97 : 00da;
    98 : 0000;
    99 : 00da;
    100   : 0000;
    101 : 00da;
    102 : 0000;
    103 : 00da;
    104   : 0000;
    105 : 00da;
    106 : 0000;
    107 : 00da;
    108   : 0000;
    109 : 00da;
    110 : 0000;
    111 : 00da;
    112   : 0000;
    113 : 00da;
    114 : 0000;
    115 : 00da;
    116   : 0000;
    117 : 00da;
    118 : 0000;
    119 : 00da;
    120   : 0000;
    121 : 00da;
    122 : 0000;
    123 : 00da;
    124   : 0000;
    125 : 00da;
    126 : 0000;
    127 : 00da;
    128   : 0000;
    129 : 00da;
    130 : 0000;
    131 : 00da;
    132   : 0000;
    133 : 00da;
    134 : 0000;
    135 : 00da;
    136   : 0000;
    137 : 00da;
    138 : 0000;
    139 : 00da;
    140   : 0000;
    141 : 00da;
    142 : 0000;
    143 : 00da;
    144   : 0000;
    145 : 00da;
    146 : 0000;
    147 : 00da;
    148   : 0000;
    149 : 00da;
    150 : 0000;
    151 : 00da;
    152   : 0000;
    153 : 00da;
    154 : 0000;
    155 : 00da;
    156   : 0000;
    157 : 00da;
    158 : 0000;
    159 : 00da;
    160   : 0000;
    161 : 00da;
    162 : 0000;
    163 : 00da;
    164   : 0000;
    165 : 00da;
    166 : 0000;
    167 : 00da;
    168   : 0000;
    169 : 00da;
    170 : 0000;
    171 : 00da;
    172   : 0000;
    173 : 00da;
    174 : 0000;
    175 : 00da;
    176   : 0000;
    177 : 00da;
    178 : 0000;
    179 : 00da;
    180   : 0000;
    181 : 00da;
    182 : 0000;
    183 : 00da;
    184   : 0000;
    185 : 00da;
    186 : 0000;
    187 : 00da;
    188   : 0000;
    189 : 00da;
    190 : 0000;
    191 : 00da;
    192   : 0000;
    193 : 00da;
    194 : 0000;
    195 : 00da;
    196   : 0000;
    197 : 00da;
    198 : 0000;
    199 : 00da;
    200   : 0000;
    201 : 00da;
    202 : 0000;
    203 : 00da;
    204   : 0000;
    205 : 00da;
    206 : 0000;
    207 : 00da;
    208   : 0000;
    209 : 00da;
    210 : 0000;
    211 : 00da;
    212   : 0000;
    213 : 00da;
    214 : 0000;
    215 : 00da;
    216   : 0000;
    217 : 00da;
    218 : 0000;
    219 : 00da;
    220   : 0000;
    221 : 00da;
    222 : 0000;
    223 : 00da;
    224   : 0000;
    225 : 00da;
    226 : 0000;
    227 : 00da;
    228   : 0000;
    229 : 00da;
    230 : 0000;
    231 : 00da;
    232   : 0000;
    233 : 00da;
    234 : 0000;
    235 : 00da;
    236   : 0000;
    237 : 00da;
    238 : 0000;
    239 : 00da;
    240   : 0000;
    241 : 00da;
    242 : 0000;
    243 : 00da;
    244   : 0000;
    245 : 00da;
    246 : 0000;
    247 : 00da;
    248   : 0000;
    249 : 00da;
    250 : 0000;
    251 : 00da;
    252   : 0000;
    253 : 00da;
    254 : 0000;
    255 : 00da;
END;
