WIDTH=16;
DEPTH=256;
ADDRESS_RADIX=UNS;
DATA_RADIX=HEX;
CONTENT BEGIN
    0   : 0000;
    1 : 00de;
    2 : 0000;
    3 : 00de;
    4   : 0000;
    5 : 00de;
    6 : 0000;
    7 : 00de;
    8   : 0000;
    9 : 00de;
    10 : 0000;
    11 : 00de;
    12   : 0000;
    13 : 00de;
    14 : 0000;
    15 : 00de;
    16   : 0000;
    17 : 00de;
    18 : 0000;
    19 : 00de;
    20   : 0000;
    21 : 00de;
    22 : 0000;
    23 : 00de;
    24   : 0000;
    25 : 00de;
    26 : 0000;
    27 : 00de;
    28   : 0000;
    29 : 00de;
    30 : 0000;
    31 : 00de;
    32   : 0000;
    33 : 00de;
    34 : 0000;
    35 : 00de;
    36   : 0000;
    37 : 00de;
    38 : 0000;
    39 : 00de;
    40   : 0000;
    41 : 00de;
    42 : 0000;
    43 : 00de;
    44   : 0000;
    45 : 00de;
    46 : 0000;
    47 : 00de;
    48   : 0000;
    49 : 00de;
    50 : 0000;
    51 : 00de;
    52   : 0000;
    53 : 00de;
    54 : 0000;
    55 : 00de;
    56   : 0000;
    57 : 00de;
    58 : 0000;
    59 : 00de;
    60   : 0000;
    61 : 00de;
    62 : 0000;
    63 : 00de;
    64   : 0000;
    65 : 00de;
    66 : 0000;
    67 : 00de;
    68   : 0000;
    69 : 00de;
    70 : 0000;
    71 : 00de;
    72   : 0000;
    73 : 00de;
    74 : 0000;
    75 : 00de;
    76   : 0000;
    77 : 00de;
    78 : 0000;
    79 : 00de;
    80   : 0000;
    81 : 00de;
    82 : 0000;
    83 : 00de;
    84   : 0000;
    85 : 00de;
    86 : 0000;
    87 : 00de;
    88   : 0000;
    89 : 00de;
    90 : 0000;
    91 : 00de;
    92   : 0000;
    93 : 00de;
    94 : 0000;
    95 : 00de;
    96   : 0000;
    97 : 00de;
    98 : 0000;
    99 : 00de;
    100   : 0000;
    101 : 00de;
    102 : 0000;
    103 : 00de;
    104   : 0000;
    105 : 00de;
    106 : 0000;
    107 : 00de;
    108   : 0000;
    109 : 00de;
    110 : 0000;
    111 : 00de;
    112   : 0000;
    113 : 00de;
    114 : 0000;
    115 : 00de;
    116   : 0000;
    117 : 00de;
    118 : 0000;
    119 : 00de;
    120   : 0000;
    121 : 00de;
    122 : 0000;
    123 : 00de;
    124   : 0000;
    125 : 00de;
    126 : 0000;
    127 : 00de;
    128   : 0000;
    129 : 00de;
    130 : 0000;
    131 : 00de;
    132   : 0000;
    133 : 00de;
    134 : 0000;
    135 : 00de;
    136   : 0000;
    137 : 00de;
    138 : 0000;
    139 : 00de;
    140   : 0000;
    141 : 00de;
    142 : 0000;
    143 : 00de;
    144   : 0000;
    145 : 00de;
    146 : 0000;
    147 : 00de;
    148   : 0000;
    149 : 00de;
    150 : 0000;
    151 : 00de;
    152   : 0000;
    153 : 00de;
    154 : 0000;
    155 : 00de;
    156   : 0000;
    157 : 00de;
    158 : 0000;
    159 : 00de;
    160   : 0000;
    161 : 00de;
    162 : 0000;
    163 : 00de;
    164   : 0000;
    165 : 00de;
    166 : 0000;
    167 : 00de;
    168   : 0000;
    169 : 00de;
    170 : 0000;
    171 : 00de;
    172   : 0000;
    173 : 00de;
    174 : 0000;
    175 : 00de;
    176   : 0000;
    177 : 00de;
    178 : 0000;
    179 : 00de;
    180   : 0000;
    181 : 00de;
    182 : 0000;
    183 : 00de;
    184   : 0000;
    185 : 00de;
    186 : 0000;
    187 : 00de;
    188   : 0000;
    189 : 00de;
    190 : 0000;
    191 : 00de;
    192   : 0000;
    193 : 00de;
    194 : 0000;
    195 : 00de;
    196   : 0000;
    197 : 00de;
    198 : 0000;
    199 : 00de;
    200   : 0000;
    201 : 00de;
    202 : 0000;
    203 : 00de;
    204   : 0000;
    205 : 00de;
    206 : 0000;
    207 : 00de;
    208   : 0000;
    209 : 00de;
    210 : 0000;
    211 : 00de;
    212   : 0000;
    213 : 00de;
    214 : 0000;
    215 : 00de;
    216   : 0000;
    217 : 00de;
    218 : 0000;
    219 : 00de;
    220   : 0000;
    221 : 00de;
    222 : 0000;
    223 : 00de;
    224   : 0000;
    225 : 00de;
    226 : 0000;
    227 : 00de;
    228   : 0000;
    229 : 00de;
    230 : 0000;
    231 : 00de;
    232   : 0000;
    233 : 00de;
    234 : 0000;
    235 : 00de;
    236   : 0000;
    237 : 00de;
    238 : 0000;
    239 : 00de;
    240   : 0000;
    241 : 00de;
    242 : 0000;
    243 : 00de;
    244   : 0000;
    245 : 00de;
    246 : 0000;
    247 : 00de;
    248   : 0000;
    249 : 00de;
    250 : 0000;
    251 : 00de;
    252   : 0000;
    253 : 00de;
    254 : 0000;
    255 : 00de;
END;
