WIDTH=16;
DEPTH=256;
ADDRESS_RADIX=UNS;
DATA_RADIX=HEX;
CONTENT BEGIN
    0   : 0000;
    1 : 00e4;
    2 : 0000;
    3 : 00e4;
    4   : 0000;
    5 : 00e4;
    6 : 0000;
    7 : 00e4;
    8   : 0000;
    9 : 00e4;
    10 : 0000;
    11 : 00e4;
    12   : 0000;
    13 : 00e4;
    14 : 0000;
    15 : 00e4;
    16   : 0000;
    17 : 00e4;
    18 : 0000;
    19 : 00e4;
    20   : 0000;
    21 : 00e4;
    22 : 0000;
    23 : 00e4;
    24   : 0000;
    25 : 00e4;
    26 : 0000;
    27 : 00e4;
    28   : 0000;
    29 : 00e4;
    30 : 0000;
    31 : 00e4;
    32   : 0000;
    33 : 00e4;
    34 : 0000;
    35 : 00e4;
    36   : 0000;
    37 : 00e4;
    38 : 0000;
    39 : 00e4;
    40   : 0000;
    41 : 00e4;
    42 : 0000;
    43 : 00e4;
    44   : 0000;
    45 : 00e4;
    46 : 0000;
    47 : 00e4;
    48   : 0000;
    49 : 00e4;
    50 : 0000;
    51 : 00e4;
    52   : 0000;
    53 : 00e4;
    54 : 0000;
    55 : 00e4;
    56   : 0000;
    57 : 00e4;
    58 : 0000;
    59 : 00e4;
    60   : 0000;
    61 : 00e4;
    62 : 0000;
    63 : 00e4;
    64   : 0000;
    65 : 00e4;
    66 : 0000;
    67 : 00e4;
    68   : 0000;
    69 : 00e4;
    70 : 0000;
    71 : 00e4;
    72   : 0000;
    73 : 00e4;
    74 : 0000;
    75 : 00e4;
    76   : 0000;
    77 : 00e4;
    78 : 0000;
    79 : 00e4;
    80   : 0000;
    81 : 00e4;
    82 : 0000;
    83 : 00e4;
    84   : 0000;
    85 : 00e4;
    86 : 0000;
    87 : 00e4;
    88   : 0000;
    89 : 00e4;
    90 : 0000;
    91 : 00e4;
    92   : 0000;
    93 : 00e4;
    94 : 0000;
    95 : 00e4;
    96   : 0000;
    97 : 00e4;
    98 : 0000;
    99 : 00e4;
    100   : 0000;
    101 : 00e4;
    102 : 0000;
    103 : 00e4;
    104   : 0000;
    105 : 00e4;
    106 : 0000;
    107 : 00e4;
    108   : 0000;
    109 : 00e4;
    110 : 0000;
    111 : 00e4;
    112   : 0000;
    113 : 00e4;
    114 : 0000;
    115 : 00e4;
    116   : 0000;
    117 : 00e4;
    118 : 0000;
    119 : 00e4;
    120   : 0000;
    121 : 00e4;
    122 : 0000;
    123 : 00e4;
    124   : 0000;
    125 : 00e4;
    126 : 0000;
    127 : 00e4;
    128   : 0000;
    129 : 00e4;
    130 : 0000;
    131 : 00e4;
    132   : 0000;
    133 : 00e4;
    134 : 0000;
    135 : 00e4;
    136   : 0000;
    137 : 00e4;
    138 : 0000;
    139 : 00e4;
    140   : 0000;
    141 : 00e4;
    142 : 0000;
    143 : 00e4;
    144   : 0000;
    145 : 00e4;
    146 : 0000;
    147 : 00e4;
    148   : 0000;
    149 : 00e4;
    150 : 0000;
    151 : 00e4;
    152   : 0000;
    153 : 00e4;
    154 : 0000;
    155 : 00e4;
    156   : 0000;
    157 : 00e4;
    158 : 0000;
    159 : 00e4;
    160   : 0000;
    161 : 00e4;
    162 : 0000;
    163 : 00e4;
    164   : 0000;
    165 : 00e4;
    166 : 0000;
    167 : 00e4;
    168   : 0000;
    169 : 00e4;
    170 : 0000;
    171 : 00e4;
    172   : 0000;
    173 : 00e4;
    174 : 0000;
    175 : 00e4;
    176   : 0000;
    177 : 00e4;
    178 : 0000;
    179 : 00e4;
    180   : 0000;
    181 : 00e4;
    182 : 0000;
    183 : 00e4;
    184   : 0000;
    185 : 00e4;
    186 : 0000;
    187 : 00e4;
    188   : 0000;
    189 : 00e4;
    190 : 0000;
    191 : 00e4;
    192   : 0000;
    193 : 00e4;
    194 : 0000;
    195 : 00e4;
    196   : 0000;
    197 : 00e4;
    198 : 0000;
    199 : 00e4;
    200   : 0000;
    201 : 00e4;
    202 : 0000;
    203 : 00e4;
    204   : 0000;
    205 : 00e4;
    206 : 0000;
    207 : 00e4;
    208   : 0000;
    209 : 00e4;
    210 : 0000;
    211 : 00e4;
    212   : 0000;
    213 : 00e4;
    214 : 0000;
    215 : 00e4;
    216   : 0000;
    217 : 00e4;
    218 : 0000;
    219 : 00e4;
    220   : 0000;
    221 : 00e4;
    222 : 0000;
    223 : 00e4;
    224   : 0000;
    225 : 00e4;
    226 : 0000;
    227 : 00e4;
    228   : 0000;
    229 : 00e4;
    230 : 0000;
    231 : 00e4;
    232   : 0000;
    233 : 00e4;
    234 : 0000;
    235 : 00e4;
    236   : 0000;
    237 : 00e4;
    238 : 0000;
    239 : 00e4;
    240   : 0000;
    241 : 00e4;
    242 : 0000;
    243 : 00e4;
    244   : 0000;
    245 : 00e4;
    246 : 0000;
    247 : 00e4;
    248   : 0000;
    249 : 00e4;
    250 : 0000;
    251 : 00e4;
    252   : 0000;
    253 : 00e4;
    254 : 0000;
    255 : 00e4;
END;
