WIDTH=16;
DEPTH=256;
ADDRESS_RADIX=UNS;
DATA_RADIX=HEX;
CONTENT BEGIN
    0   : 0000;
    1 : 0088;
    2 : 0000;
    3 : 0088;
    4   : 0000;
    5 : 0088;
    6 : 0000;
    7 : 0088;
    8   : 0000;
    9 : 0088;
    10 : 0000;
    11 : 0088;
    12   : 0000;
    13 : 0088;
    14 : 0000;
    15 : 0088;
    16   : 0000;
    17 : 0088;
    18 : 0000;
    19 : 0088;
    20   : 0000;
    21 : 0088;
    22 : 0000;
    23 : 0088;
    24   : 0000;
    25 : 0088;
    26 : 0000;
    27 : 0088;
    28   : 0000;
    29 : 0088;
    30 : 0000;
    31 : 0088;
    32   : 0000;
    33 : 0088;
    34 : 0000;
    35 : 0088;
    36   : 0000;
    37 : 0088;
    38 : 0000;
    39 : 0088;
    40   : 0000;
    41 : 0088;
    42 : 0000;
    43 : 0088;
    44   : 0000;
    45 : 0088;
    46 : 0000;
    47 : 0088;
    48   : 0000;
    49 : 0088;
    50 : 0000;
    51 : 0088;
    52   : 0000;
    53 : 0088;
    54 : 0000;
    55 : 0088;
    56   : 0000;
    57 : 0088;
    58 : 0000;
    59 : 0088;
    60   : 0000;
    61 : 0088;
    62 : 0000;
    63 : 0088;
    64   : 0000;
    65 : 0088;
    66 : 0000;
    67 : 0088;
    68   : 0000;
    69 : 0088;
    70 : 0000;
    71 : 0088;
    72   : 0000;
    73 : 0088;
    74 : 0000;
    75 : 0088;
    76   : 0000;
    77 : 0088;
    78 : 0000;
    79 : 0088;
    80   : 0000;
    81 : 0088;
    82 : 0000;
    83 : 0088;
    84   : 0000;
    85 : 0088;
    86 : 0000;
    87 : 0088;
    88   : 0000;
    89 : 0088;
    90 : 0000;
    91 : 0088;
    92   : 0000;
    93 : 0088;
    94 : 0000;
    95 : 0088;
    96   : 0000;
    97 : 0088;
    98 : 0000;
    99 : 0088;
    100   : 0000;
    101 : 0088;
    102 : 0000;
    103 : 0088;
    104   : 0000;
    105 : 0088;
    106 : 0000;
    107 : 0088;
    108   : 0000;
    109 : 0088;
    110 : 0000;
    111 : 0088;
    112   : 0000;
    113 : 0088;
    114 : 0000;
    115 : 0088;
    116   : 0000;
    117 : 0088;
    118 : 0000;
    119 : 0088;
    120   : 0000;
    121 : 0088;
    122 : 0000;
    123 : 0088;
    124   : 0000;
    125 : 0088;
    126 : 0000;
    127 : 0088;
    128   : 0000;
    129 : 0088;
    130 : 0000;
    131 : 0088;
    132   : 0000;
    133 : 0088;
    134 : 0000;
    135 : 0088;
    136   : 0000;
    137 : 0088;
    138 : 0000;
    139 : 0088;
    140   : 0000;
    141 : 0088;
    142 : 0000;
    143 : 0088;
    144   : 0000;
    145 : 0088;
    146 : 0000;
    147 : 0088;
    148   : 0000;
    149 : 0088;
    150 : 0000;
    151 : 0088;
    152   : 0000;
    153 : 0088;
    154 : 0000;
    155 : 0088;
    156   : 0000;
    157 : 0088;
    158 : 0000;
    159 : 0088;
    160   : 0000;
    161 : 0088;
    162 : 0000;
    163 : 0088;
    164   : 0000;
    165 : 0088;
    166 : 0000;
    167 : 0088;
    168   : 0000;
    169 : 0088;
    170 : 0000;
    171 : 0088;
    172   : 0000;
    173 : 0088;
    174 : 0000;
    175 : 0088;
    176   : 0000;
    177 : 0088;
    178 : 0000;
    179 : 0088;
    180   : 0000;
    181 : 0088;
    182 : 0000;
    183 : 0088;
    184   : 0000;
    185 : 0088;
    186 : 0000;
    187 : 0088;
    188   : 0000;
    189 : 0088;
    190 : 0000;
    191 : 0088;
    192   : 0000;
    193 : 0088;
    194 : 0000;
    195 : 0088;
    196   : 0000;
    197 : 0088;
    198 : 0000;
    199 : 0088;
    200   : 0000;
    201 : 0088;
    202 : 0000;
    203 : 0088;
    204   : 0000;
    205 : 0088;
    206 : 0000;
    207 : 0088;
    208   : 0000;
    209 : 0088;
    210 : 0000;
    211 : 0088;
    212   : 0000;
    213 : 0088;
    214 : 0000;
    215 : 0088;
    216   : 0000;
    217 : 0088;
    218 : 0000;
    219 : 0088;
    220   : 0000;
    221 : 0088;
    222 : 0000;
    223 : 0088;
    224   : 0000;
    225 : 0088;
    226 : 0000;
    227 : 0088;
    228   : 0000;
    229 : 0088;
    230 : 0000;
    231 : 0088;
    232   : 0000;
    233 : 0088;
    234 : 0000;
    235 : 0088;
    236   : 0000;
    237 : 0088;
    238 : 0000;
    239 : 0088;
    240   : 0000;
    241 : 0088;
    242 : 0000;
    243 : 0088;
    244   : 0000;
    245 : 0088;
    246 : 0000;
    247 : 0088;
    248   : 0000;
    249 : 0088;
    250 : 0000;
    251 : 0088;
    252   : 0000;
    253 : 0088;
    254 : 0000;
    255 : 0088;
END;
