WIDTH=16;
DEPTH=256;
ADDRESS_RADIX=UNS;
DATA_RADIX=HEX;
CONTENT BEGIN
    0   : 0000;
    1 : 009e;
    2 : 0000;
    3 : 009e;
    4   : 0000;
    5 : 009e;
    6 : 0000;
    7 : 009e;
    8   : 0000;
    9 : 009e;
    10 : 0000;
    11 : 009e;
    12   : 0000;
    13 : 009e;
    14 : 0000;
    15 : 009e;
    16   : 0000;
    17 : 009e;
    18 : 0000;
    19 : 009e;
    20   : 0000;
    21 : 009e;
    22 : 0000;
    23 : 009e;
    24   : 0000;
    25 : 009e;
    26 : 0000;
    27 : 009e;
    28   : 0000;
    29 : 009e;
    30 : 0000;
    31 : 009e;
    32   : 0000;
    33 : 009e;
    34 : 0000;
    35 : 009e;
    36   : 0000;
    37 : 009e;
    38 : 0000;
    39 : 009e;
    40   : 0000;
    41 : 009e;
    42 : 0000;
    43 : 009e;
    44   : 0000;
    45 : 009e;
    46 : 0000;
    47 : 009e;
    48   : 0000;
    49 : 009e;
    50 : 0000;
    51 : 009e;
    52   : 0000;
    53 : 009e;
    54 : 0000;
    55 : 009e;
    56   : 0000;
    57 : 009e;
    58 : 0000;
    59 : 009e;
    60   : 0000;
    61 : 009e;
    62 : 0000;
    63 : 009e;
    64   : 0000;
    65 : 009e;
    66 : 0000;
    67 : 009e;
    68   : 0000;
    69 : 009e;
    70 : 0000;
    71 : 009e;
    72   : 0000;
    73 : 009e;
    74 : 0000;
    75 : 009e;
    76   : 0000;
    77 : 009e;
    78 : 0000;
    79 : 009e;
    80   : 0000;
    81 : 009e;
    82 : 0000;
    83 : 009e;
    84   : 0000;
    85 : 009e;
    86 : 0000;
    87 : 009e;
    88   : 0000;
    89 : 009e;
    90 : 0000;
    91 : 009e;
    92   : 0000;
    93 : 009e;
    94 : 0000;
    95 : 009e;
    96   : 0000;
    97 : 009e;
    98 : 0000;
    99 : 009e;
    100   : 0000;
    101 : 009e;
    102 : 0000;
    103 : 009e;
    104   : 0000;
    105 : 009e;
    106 : 0000;
    107 : 009e;
    108   : 0000;
    109 : 009e;
    110 : 0000;
    111 : 009e;
    112   : 0000;
    113 : 009e;
    114 : 0000;
    115 : 009e;
    116   : 0000;
    117 : 009e;
    118 : 0000;
    119 : 009e;
    120   : 0000;
    121 : 009e;
    122 : 0000;
    123 : 009e;
    124   : 0000;
    125 : 009e;
    126 : 0000;
    127 : 009e;
    128   : 0000;
    129 : 009e;
    130 : 0000;
    131 : 009e;
    132   : 0000;
    133 : 009e;
    134 : 0000;
    135 : 009e;
    136   : 0000;
    137 : 009e;
    138 : 0000;
    139 : 009e;
    140   : 0000;
    141 : 009e;
    142 : 0000;
    143 : 009e;
    144   : 0000;
    145 : 009e;
    146 : 0000;
    147 : 009e;
    148   : 0000;
    149 : 009e;
    150 : 0000;
    151 : 009e;
    152   : 0000;
    153 : 009e;
    154 : 0000;
    155 : 009e;
    156   : 0000;
    157 : 009e;
    158 : 0000;
    159 : 009e;
    160   : 0000;
    161 : 009e;
    162 : 0000;
    163 : 009e;
    164   : 0000;
    165 : 009e;
    166 : 0000;
    167 : 009e;
    168   : 0000;
    169 : 009e;
    170 : 0000;
    171 : 009e;
    172   : 0000;
    173 : 009e;
    174 : 0000;
    175 : 009e;
    176   : 0000;
    177 : 009e;
    178 : 0000;
    179 : 009e;
    180   : 0000;
    181 : 009e;
    182 : 0000;
    183 : 009e;
    184   : 0000;
    185 : 009e;
    186 : 0000;
    187 : 009e;
    188   : 0000;
    189 : 009e;
    190 : 0000;
    191 : 009e;
    192   : 0000;
    193 : 009e;
    194 : 0000;
    195 : 009e;
    196   : 0000;
    197 : 009e;
    198 : 0000;
    199 : 009e;
    200   : 0000;
    201 : 009e;
    202 : 0000;
    203 : 009e;
    204   : 0000;
    205 : 009e;
    206 : 0000;
    207 : 009e;
    208   : 0000;
    209 : 009e;
    210 : 0000;
    211 : 009e;
    212   : 0000;
    213 : 009e;
    214 : 0000;
    215 : 009e;
    216   : 0000;
    217 : 009e;
    218 : 0000;
    219 : 009e;
    220   : 0000;
    221 : 009e;
    222 : 0000;
    223 : 009e;
    224   : 0000;
    225 : 009e;
    226 : 0000;
    227 : 009e;
    228   : 0000;
    229 : 009e;
    230 : 0000;
    231 : 009e;
    232   : 0000;
    233 : 009e;
    234 : 0000;
    235 : 009e;
    236   : 0000;
    237 : 009e;
    238 : 0000;
    239 : 009e;
    240   : 0000;
    241 : 009e;
    242 : 0000;
    243 : 009e;
    244   : 0000;
    245 : 009e;
    246 : 0000;
    247 : 009e;
    248   : 0000;
    249 : 009e;
    250 : 0000;
    251 : 009e;
    252   : 0000;
    253 : 009e;
    254 : 0000;
    255 : 009e;
END;
