WIDTH=16;
DEPTH=256;
ADDRESS_RADIX=UNS;
DATA_RADIX=HEX;
CONTENT BEGIN
    0   : 0000;
    1 : 00b4;
    2 : 0000;
    3 : 00b4;
    4   : 0000;
    5 : 00b4;
    6 : 0000;
    7 : 00b4;
    8   : 0000;
    9 : 00b4;
    10 : 0000;
    11 : 00b4;
    12   : 0000;
    13 : 00b4;
    14 : 0000;
    15 : 00b4;
    16   : 0000;
    17 : 00b4;
    18 : 0000;
    19 : 00b4;
    20   : 0000;
    21 : 00b4;
    22 : 0000;
    23 : 00b4;
    24   : 0000;
    25 : 00b4;
    26 : 0000;
    27 : 00b4;
    28   : 0000;
    29 : 00b4;
    30 : 0000;
    31 : 00b4;
    32   : 0000;
    33 : 00b4;
    34 : 0000;
    35 : 00b4;
    36   : 0000;
    37 : 00b4;
    38 : 0000;
    39 : 00b4;
    40   : 0000;
    41 : 00b4;
    42 : 0000;
    43 : 00b4;
    44   : 0000;
    45 : 00b4;
    46 : 0000;
    47 : 00b4;
    48   : 0000;
    49 : 00b4;
    50 : 0000;
    51 : 00b4;
    52   : 0000;
    53 : 00b4;
    54 : 0000;
    55 : 00b4;
    56   : 0000;
    57 : 00b4;
    58 : 0000;
    59 : 00b4;
    60   : 0000;
    61 : 00b4;
    62 : 0000;
    63 : 00b4;
    64   : 0000;
    65 : 00b4;
    66 : 0000;
    67 : 00b4;
    68   : 0000;
    69 : 00b4;
    70 : 0000;
    71 : 00b4;
    72   : 0000;
    73 : 00b4;
    74 : 0000;
    75 : 00b4;
    76   : 0000;
    77 : 00b4;
    78 : 0000;
    79 : 00b4;
    80   : 0000;
    81 : 00b4;
    82 : 0000;
    83 : 00b4;
    84   : 0000;
    85 : 00b4;
    86 : 0000;
    87 : 00b4;
    88   : 0000;
    89 : 00b4;
    90 : 0000;
    91 : 00b4;
    92   : 0000;
    93 : 00b4;
    94 : 0000;
    95 : 00b4;
    96   : 0000;
    97 : 00b4;
    98 : 0000;
    99 : 00b4;
    100   : 0000;
    101 : 00b4;
    102 : 0000;
    103 : 00b4;
    104   : 0000;
    105 : 00b4;
    106 : 0000;
    107 : 00b4;
    108   : 0000;
    109 : 00b4;
    110 : 0000;
    111 : 00b4;
    112   : 0000;
    113 : 00b4;
    114 : 0000;
    115 : 00b4;
    116   : 0000;
    117 : 00b4;
    118 : 0000;
    119 : 00b4;
    120   : 0000;
    121 : 00b4;
    122 : 0000;
    123 : 00b4;
    124   : 0000;
    125 : 00b4;
    126 : 0000;
    127 : 00b4;
    128   : 0000;
    129 : 00b4;
    130 : 0000;
    131 : 00b4;
    132   : 0000;
    133 : 00b4;
    134 : 0000;
    135 : 00b4;
    136   : 0000;
    137 : 00b4;
    138 : 0000;
    139 : 00b4;
    140   : 0000;
    141 : 00b4;
    142 : 0000;
    143 : 00b4;
    144   : 0000;
    145 : 00b4;
    146 : 0000;
    147 : 00b4;
    148   : 0000;
    149 : 00b4;
    150 : 0000;
    151 : 00b4;
    152   : 0000;
    153 : 00b4;
    154 : 0000;
    155 : 00b4;
    156   : 0000;
    157 : 00b4;
    158 : 0000;
    159 : 00b4;
    160   : 0000;
    161 : 00b4;
    162 : 0000;
    163 : 00b4;
    164   : 0000;
    165 : 00b4;
    166 : 0000;
    167 : 00b4;
    168   : 0000;
    169 : 00b4;
    170 : 0000;
    171 : 00b4;
    172   : 0000;
    173 : 00b4;
    174 : 0000;
    175 : 00b4;
    176   : 0000;
    177 : 00b4;
    178 : 0000;
    179 : 00b4;
    180   : 0000;
    181 : 00b4;
    182 : 0000;
    183 : 00b4;
    184   : 0000;
    185 : 00b4;
    186 : 0000;
    187 : 00b4;
    188   : 0000;
    189 : 00b4;
    190 : 0000;
    191 : 00b4;
    192   : 0000;
    193 : 00b4;
    194 : 0000;
    195 : 00b4;
    196   : 0000;
    197 : 00b4;
    198 : 0000;
    199 : 00b4;
    200   : 0000;
    201 : 00b4;
    202 : 0000;
    203 : 00b4;
    204   : 0000;
    205 : 00b4;
    206 : 0000;
    207 : 00b4;
    208   : 0000;
    209 : 00b4;
    210 : 0000;
    211 : 00b4;
    212   : 0000;
    213 : 00b4;
    214 : 0000;
    215 : 00b4;
    216   : 0000;
    217 : 00b4;
    218 : 0000;
    219 : 00b4;
    220   : 0000;
    221 : 00b4;
    222 : 0000;
    223 : 00b4;
    224   : 0000;
    225 : 00b4;
    226 : 0000;
    227 : 00b4;
    228   : 0000;
    229 : 00b4;
    230 : 0000;
    231 : 00b4;
    232   : 0000;
    233 : 00b4;
    234 : 0000;
    235 : 00b4;
    236   : 0000;
    237 : 00b4;
    238 : 0000;
    239 : 00b4;
    240   : 0000;
    241 : 00b4;
    242 : 0000;
    243 : 00b4;
    244   : 0000;
    245 : 00b4;
    246 : 0000;
    247 : 00b4;
    248   : 0000;
    249 : 00b4;
    250 : 0000;
    251 : 00b4;
    252   : 0000;
    253 : 00b4;
    254 : 0000;
    255 : 00b4;
END;
