WIDTH=16;
DEPTH=256;
ADDRESS_RADIX=UNS;
DATA_RADIX=HEX;
CONTENT BEGIN
    0   : 0000;
    1 : 00c6;
    2 : 0000;
    3 : 00c6;
    4   : 0000;
    5 : 00c6;
    6 : 0000;
    7 : 00c6;
    8   : 0000;
    9 : 00c6;
    10 : 0000;
    11 : 00c6;
    12   : 0000;
    13 : 00c6;
    14 : 0000;
    15 : 00c6;
    16   : 0000;
    17 : 00c6;
    18 : 0000;
    19 : 00c6;
    20   : 0000;
    21 : 00c6;
    22 : 0000;
    23 : 00c6;
    24   : 0000;
    25 : 00c6;
    26 : 0000;
    27 : 00c6;
    28   : 0000;
    29 : 00c6;
    30 : 0000;
    31 : 00c6;
    32   : 0000;
    33 : 00c6;
    34 : 0000;
    35 : 00c6;
    36   : 0000;
    37 : 00c6;
    38 : 0000;
    39 : 00c6;
    40   : 0000;
    41 : 00c6;
    42 : 0000;
    43 : 00c6;
    44   : 0000;
    45 : 00c6;
    46 : 0000;
    47 : 00c6;
    48   : 0000;
    49 : 00c6;
    50 : 0000;
    51 : 00c6;
    52   : 0000;
    53 : 00c6;
    54 : 0000;
    55 : 00c6;
    56   : 0000;
    57 : 00c6;
    58 : 0000;
    59 : 00c6;
    60   : 0000;
    61 : 00c6;
    62 : 0000;
    63 : 00c6;
    64   : 0000;
    65 : 00c6;
    66 : 0000;
    67 : 00c6;
    68   : 0000;
    69 : 00c6;
    70 : 0000;
    71 : 00c6;
    72   : 0000;
    73 : 00c6;
    74 : 0000;
    75 : 00c6;
    76   : 0000;
    77 : 00c6;
    78 : 0000;
    79 : 00c6;
    80   : 0000;
    81 : 00c6;
    82 : 0000;
    83 : 00c6;
    84   : 0000;
    85 : 00c6;
    86 : 0000;
    87 : 00c6;
    88   : 0000;
    89 : 00c6;
    90 : 0000;
    91 : 00c6;
    92   : 0000;
    93 : 00c6;
    94 : 0000;
    95 : 00c6;
    96   : 0000;
    97 : 00c6;
    98 : 0000;
    99 : 00c6;
    100   : 0000;
    101 : 00c6;
    102 : 0000;
    103 : 00c6;
    104   : 0000;
    105 : 00c6;
    106 : 0000;
    107 : 00c6;
    108   : 0000;
    109 : 00c6;
    110 : 0000;
    111 : 00c6;
    112   : 0000;
    113 : 00c6;
    114 : 0000;
    115 : 00c6;
    116   : 0000;
    117 : 00c6;
    118 : 0000;
    119 : 00c6;
    120   : 0000;
    121 : 00c6;
    122 : 0000;
    123 : 00c6;
    124   : 0000;
    125 : 00c6;
    126 : 0000;
    127 : 00c6;
    128   : 0000;
    129 : 00c6;
    130 : 0000;
    131 : 00c6;
    132   : 0000;
    133 : 00c6;
    134 : 0000;
    135 : 00c6;
    136   : 0000;
    137 : 00c6;
    138 : 0000;
    139 : 00c6;
    140   : 0000;
    141 : 00c6;
    142 : 0000;
    143 : 00c6;
    144   : 0000;
    145 : 00c6;
    146 : 0000;
    147 : 00c6;
    148   : 0000;
    149 : 00c6;
    150 : 0000;
    151 : 00c6;
    152   : 0000;
    153 : 00c6;
    154 : 0000;
    155 : 00c6;
    156   : 0000;
    157 : 00c6;
    158 : 0000;
    159 : 00c6;
    160   : 0000;
    161 : 00c6;
    162 : 0000;
    163 : 00c6;
    164   : 0000;
    165 : 00c6;
    166 : 0000;
    167 : 00c6;
    168   : 0000;
    169 : 00c6;
    170 : 0000;
    171 : 00c6;
    172   : 0000;
    173 : 00c6;
    174 : 0000;
    175 : 00c6;
    176   : 0000;
    177 : 00c6;
    178 : 0000;
    179 : 00c6;
    180   : 0000;
    181 : 00c6;
    182 : 0000;
    183 : 00c6;
    184   : 0000;
    185 : 00c6;
    186 : 0000;
    187 : 00c6;
    188   : 0000;
    189 : 00c6;
    190 : 0000;
    191 : 00c6;
    192   : 0000;
    193 : 00c6;
    194 : 0000;
    195 : 00c6;
    196   : 0000;
    197 : 00c6;
    198 : 0000;
    199 : 00c6;
    200   : 0000;
    201 : 00c6;
    202 : 0000;
    203 : 00c6;
    204   : 0000;
    205 : 00c6;
    206 : 0000;
    207 : 00c6;
    208   : 0000;
    209 : 00c6;
    210 : 0000;
    211 : 00c6;
    212   : 0000;
    213 : 00c6;
    214 : 0000;
    215 : 00c6;
    216   : 0000;
    217 : 00c6;
    218 : 0000;
    219 : 00c6;
    220   : 0000;
    221 : 00c6;
    222 : 0000;
    223 : 00c6;
    224   : 0000;
    225 : 00c6;
    226 : 0000;
    227 : 00c6;
    228   : 0000;
    229 : 00c6;
    230 : 0000;
    231 : 00c6;
    232   : 0000;
    233 : 00c6;
    234 : 0000;
    235 : 00c6;
    236   : 0000;
    237 : 00c6;
    238 : 0000;
    239 : 00c6;
    240   : 0000;
    241 : 00c6;
    242 : 0000;
    243 : 00c6;
    244   : 0000;
    245 : 00c6;
    246 : 0000;
    247 : 00c6;
    248   : 0000;
    249 : 00c6;
    250 : 0000;
    251 : 00c6;
    252   : 0000;
    253 : 00c6;
    254 : 0000;
    255 : 00c6;
END;
