WIDTH=16;
DEPTH=256;
ADDRESS_RADIX=UNS;
DATA_RADIX=HEX;
CONTENT BEGIN
    0   : 0000;
    1 : 00ba;
    2 : 0000;
    3 : 00ba;
    4   : 0000;
    5 : 00ba;
    6 : 0000;
    7 : 00ba;
    8   : 0000;
    9 : 00ba;
    10 : 0000;
    11 : 00ba;
    12   : 0000;
    13 : 00ba;
    14 : 0000;
    15 : 00ba;
    16   : 0000;
    17 : 00ba;
    18 : 0000;
    19 : 00ba;
    20   : 0000;
    21 : 00ba;
    22 : 0000;
    23 : 00ba;
    24   : 0000;
    25 : 00ba;
    26 : 0000;
    27 : 00ba;
    28   : 0000;
    29 : 00ba;
    30 : 0000;
    31 : 00ba;
    32   : 0000;
    33 : 00ba;
    34 : 0000;
    35 : 00ba;
    36   : 0000;
    37 : 00ba;
    38 : 0000;
    39 : 00ba;
    40   : 0000;
    41 : 00ba;
    42 : 0000;
    43 : 00ba;
    44   : 0000;
    45 : 00ba;
    46 : 0000;
    47 : 00ba;
    48   : 0000;
    49 : 00ba;
    50 : 0000;
    51 : 00ba;
    52   : 0000;
    53 : 00ba;
    54 : 0000;
    55 : 00ba;
    56   : 0000;
    57 : 00ba;
    58 : 0000;
    59 : 00ba;
    60   : 0000;
    61 : 00ba;
    62 : 0000;
    63 : 00ba;
    64   : 0000;
    65 : 00ba;
    66 : 0000;
    67 : 00ba;
    68   : 0000;
    69 : 00ba;
    70 : 0000;
    71 : 00ba;
    72   : 0000;
    73 : 00ba;
    74 : 0000;
    75 : 00ba;
    76   : 0000;
    77 : 00ba;
    78 : 0000;
    79 : 00ba;
    80   : 0000;
    81 : 00ba;
    82 : 0000;
    83 : 00ba;
    84   : 0000;
    85 : 00ba;
    86 : 0000;
    87 : 00ba;
    88   : 0000;
    89 : 00ba;
    90 : 0000;
    91 : 00ba;
    92   : 0000;
    93 : 00ba;
    94 : 0000;
    95 : 00ba;
    96   : 0000;
    97 : 00ba;
    98 : 0000;
    99 : 00ba;
    100   : 0000;
    101 : 00ba;
    102 : 0000;
    103 : 00ba;
    104   : 0000;
    105 : 00ba;
    106 : 0000;
    107 : 00ba;
    108   : 0000;
    109 : 00ba;
    110 : 0000;
    111 : 00ba;
    112   : 0000;
    113 : 00ba;
    114 : 0000;
    115 : 00ba;
    116   : 0000;
    117 : 00ba;
    118 : 0000;
    119 : 00ba;
    120   : 0000;
    121 : 00ba;
    122 : 0000;
    123 : 00ba;
    124   : 0000;
    125 : 00ba;
    126 : 0000;
    127 : 00ba;
    128   : 0000;
    129 : 00ba;
    130 : 0000;
    131 : 00ba;
    132   : 0000;
    133 : 00ba;
    134 : 0000;
    135 : 00ba;
    136   : 0000;
    137 : 00ba;
    138 : 0000;
    139 : 00ba;
    140   : 0000;
    141 : 00ba;
    142 : 0000;
    143 : 00ba;
    144   : 0000;
    145 : 00ba;
    146 : 0000;
    147 : 00ba;
    148   : 0000;
    149 : 00ba;
    150 : 0000;
    151 : 00ba;
    152   : 0000;
    153 : 00ba;
    154 : 0000;
    155 : 00ba;
    156   : 0000;
    157 : 00ba;
    158 : 0000;
    159 : 00ba;
    160   : 0000;
    161 : 00ba;
    162 : 0000;
    163 : 00ba;
    164   : 0000;
    165 : 00ba;
    166 : 0000;
    167 : 00ba;
    168   : 0000;
    169 : 00ba;
    170 : 0000;
    171 : 00ba;
    172   : 0000;
    173 : 00ba;
    174 : 0000;
    175 : 00ba;
    176   : 0000;
    177 : 00ba;
    178 : 0000;
    179 : 00ba;
    180   : 0000;
    181 : 00ba;
    182 : 0000;
    183 : 00ba;
    184   : 0000;
    185 : 00ba;
    186 : 0000;
    187 : 00ba;
    188   : 0000;
    189 : 00ba;
    190 : 0000;
    191 : 00ba;
    192   : 0000;
    193 : 00ba;
    194 : 0000;
    195 : 00ba;
    196   : 0000;
    197 : 00ba;
    198 : 0000;
    199 : 00ba;
    200   : 0000;
    201 : 00ba;
    202 : 0000;
    203 : 00ba;
    204   : 0000;
    205 : 00ba;
    206 : 0000;
    207 : 00ba;
    208   : 0000;
    209 : 00ba;
    210 : 0000;
    211 : 00ba;
    212   : 0000;
    213 : 00ba;
    214 : 0000;
    215 : 00ba;
    216   : 0000;
    217 : 00ba;
    218 : 0000;
    219 : 00ba;
    220   : 0000;
    221 : 00ba;
    222 : 0000;
    223 : 00ba;
    224   : 0000;
    225 : 00ba;
    226 : 0000;
    227 : 00ba;
    228   : 0000;
    229 : 00ba;
    230 : 0000;
    231 : 00ba;
    232   : 0000;
    233 : 00ba;
    234 : 0000;
    235 : 00ba;
    236   : 0000;
    237 : 00ba;
    238 : 0000;
    239 : 00ba;
    240   : 0000;
    241 : 00ba;
    242 : 0000;
    243 : 00ba;
    244   : 0000;
    245 : 00ba;
    246 : 0000;
    247 : 00ba;
    248   : 0000;
    249 : 00ba;
    250 : 0000;
    251 : 00ba;
    252   : 0000;
    253 : 00ba;
    254 : 0000;
    255 : 00ba;
END;
