WIDTH=16;
DEPTH=256;
ADDRESS_RADIX=UNS;
DATA_RADIX=HEX;
CONTENT BEGIN
    0   : 0000;
    1 : 00b0;
    2 : 0000;
    3 : 00b0;
    4   : 0000;
    5 : 00b0;
    6 : 0000;
    7 : 00b0;
    8   : 0000;
    9 : 00b0;
    10 : 0000;
    11 : 00b0;
    12   : 0000;
    13 : 00b0;
    14 : 0000;
    15 : 00b0;
    16   : 0000;
    17 : 00b0;
    18 : 0000;
    19 : 00b0;
    20   : 0000;
    21 : 00b0;
    22 : 0000;
    23 : 00b0;
    24   : 0000;
    25 : 00b0;
    26 : 0000;
    27 : 00b0;
    28   : 0000;
    29 : 00b0;
    30 : 0000;
    31 : 00b0;
    32   : 0000;
    33 : 00b0;
    34 : 0000;
    35 : 00b0;
    36   : 0000;
    37 : 00b0;
    38 : 0000;
    39 : 00b0;
    40   : 0000;
    41 : 00b0;
    42 : 0000;
    43 : 00b0;
    44   : 0000;
    45 : 00b0;
    46 : 0000;
    47 : 00b0;
    48   : 0000;
    49 : 00b0;
    50 : 0000;
    51 : 00b0;
    52   : 0000;
    53 : 00b0;
    54 : 0000;
    55 : 00b0;
    56   : 0000;
    57 : 00b0;
    58 : 0000;
    59 : 00b0;
    60   : 0000;
    61 : 00b0;
    62 : 0000;
    63 : 00b0;
    64   : 0000;
    65 : 00b0;
    66 : 0000;
    67 : 00b0;
    68   : 0000;
    69 : 00b0;
    70 : 0000;
    71 : 00b0;
    72   : 0000;
    73 : 00b0;
    74 : 0000;
    75 : 00b0;
    76   : 0000;
    77 : 00b0;
    78 : 0000;
    79 : 00b0;
    80   : 0000;
    81 : 00b0;
    82 : 0000;
    83 : 00b0;
    84   : 0000;
    85 : 00b0;
    86 : 0000;
    87 : 00b0;
    88   : 0000;
    89 : 00b0;
    90 : 0000;
    91 : 00b0;
    92   : 0000;
    93 : 00b0;
    94 : 0000;
    95 : 00b0;
    96   : 0000;
    97 : 00b0;
    98 : 0000;
    99 : 00b0;
    100   : 0000;
    101 : 00b0;
    102 : 0000;
    103 : 00b0;
    104   : 0000;
    105 : 00b0;
    106 : 0000;
    107 : 00b0;
    108   : 0000;
    109 : 00b0;
    110 : 0000;
    111 : 00b0;
    112   : 0000;
    113 : 00b0;
    114 : 0000;
    115 : 00b0;
    116   : 0000;
    117 : 00b0;
    118 : 0000;
    119 : 00b0;
    120   : 0000;
    121 : 00b0;
    122 : 0000;
    123 : 00b0;
    124   : 0000;
    125 : 00b0;
    126 : 0000;
    127 : 00b0;
    128   : 0000;
    129 : 00b0;
    130 : 0000;
    131 : 00b0;
    132   : 0000;
    133 : 00b0;
    134 : 0000;
    135 : 00b0;
    136   : 0000;
    137 : 00b0;
    138 : 0000;
    139 : 00b0;
    140   : 0000;
    141 : 00b0;
    142 : 0000;
    143 : 00b0;
    144   : 0000;
    145 : 00b0;
    146 : 0000;
    147 : 00b0;
    148   : 0000;
    149 : 00b0;
    150 : 0000;
    151 : 00b0;
    152   : 0000;
    153 : 00b0;
    154 : 0000;
    155 : 00b0;
    156   : 0000;
    157 : 00b0;
    158 : 0000;
    159 : 00b0;
    160   : 0000;
    161 : 00b0;
    162 : 0000;
    163 : 00b0;
    164   : 0000;
    165 : 00b0;
    166 : 0000;
    167 : 00b0;
    168   : 0000;
    169 : 00b0;
    170 : 0000;
    171 : 00b0;
    172   : 0000;
    173 : 00b0;
    174 : 0000;
    175 : 00b0;
    176   : 0000;
    177 : 00b0;
    178 : 0000;
    179 : 00b0;
    180   : 0000;
    181 : 00b0;
    182 : 0000;
    183 : 00b0;
    184   : 0000;
    185 : 00b0;
    186 : 0000;
    187 : 00b0;
    188   : 0000;
    189 : 00b0;
    190 : 0000;
    191 : 00b0;
    192   : 0000;
    193 : 00b0;
    194 : 0000;
    195 : 00b0;
    196   : 0000;
    197 : 00b0;
    198 : 0000;
    199 : 00b0;
    200   : 0000;
    201 : 00b0;
    202 : 0000;
    203 : 00b0;
    204   : 0000;
    205 : 00b0;
    206 : 0000;
    207 : 00b0;
    208   : 0000;
    209 : 00b0;
    210 : 0000;
    211 : 00b0;
    212   : 0000;
    213 : 00b0;
    214 : 0000;
    215 : 00b0;
    216   : 0000;
    217 : 00b0;
    218 : 0000;
    219 : 00b0;
    220   : 0000;
    221 : 00b0;
    222 : 0000;
    223 : 00b0;
    224   : 0000;
    225 : 00b0;
    226 : 0000;
    227 : 00b0;
    228   : 0000;
    229 : 00b0;
    230 : 0000;
    231 : 00b0;
    232   : 0000;
    233 : 00b0;
    234 : 0000;
    235 : 00b0;
    236   : 0000;
    237 : 00b0;
    238 : 0000;
    239 : 00b0;
    240   : 0000;
    241 : 00b0;
    242 : 0000;
    243 : 00b0;
    244   : 0000;
    245 : 00b0;
    246 : 0000;
    247 : 00b0;
    248   : 0000;
    249 : 00b0;
    250 : 0000;
    251 : 00b0;
    252   : 0000;
    253 : 00b0;
    254 : 0000;
    255 : 00b0;
END;
