WIDTH=16;
DEPTH=256;
ADDRESS_RADIX=UNS;
DATA_RADIX=HEX;
CONTENT BEGIN
    0   : 0000;
    1 : 0084;
    2 : 0000;
    3 : 0084;
    4   : 0000;
    5 : 0084;
    6 : 0000;
    7 : 0084;
    8   : 0000;
    9 : 0084;
    10 : 0000;
    11 : 0084;
    12   : 0000;
    13 : 0084;
    14 : 0000;
    15 : 0084;
    16   : 0000;
    17 : 0084;
    18 : 0000;
    19 : 0084;
    20   : 0000;
    21 : 0084;
    22 : 0000;
    23 : 0084;
    24   : 0000;
    25 : 0084;
    26 : 0000;
    27 : 0084;
    28   : 0000;
    29 : 0084;
    30 : 0000;
    31 : 0084;
    32   : 0000;
    33 : 0084;
    34 : 0000;
    35 : 0084;
    36   : 0000;
    37 : 0084;
    38 : 0000;
    39 : 0084;
    40   : 0000;
    41 : 0084;
    42 : 0000;
    43 : 0084;
    44   : 0000;
    45 : 0084;
    46 : 0000;
    47 : 0084;
    48   : 0000;
    49 : 0084;
    50 : 0000;
    51 : 0084;
    52   : 0000;
    53 : 0084;
    54 : 0000;
    55 : 0084;
    56   : 0000;
    57 : 0084;
    58 : 0000;
    59 : 0084;
    60   : 0000;
    61 : 0084;
    62 : 0000;
    63 : 0084;
    64   : 0000;
    65 : 0084;
    66 : 0000;
    67 : 0084;
    68   : 0000;
    69 : 0084;
    70 : 0000;
    71 : 0084;
    72   : 0000;
    73 : 0084;
    74 : 0000;
    75 : 0084;
    76   : 0000;
    77 : 0084;
    78 : 0000;
    79 : 0084;
    80   : 0000;
    81 : 0084;
    82 : 0000;
    83 : 0084;
    84   : 0000;
    85 : 0084;
    86 : 0000;
    87 : 0084;
    88   : 0000;
    89 : 0084;
    90 : 0000;
    91 : 0084;
    92   : 0000;
    93 : 0084;
    94 : 0000;
    95 : 0084;
    96   : 0000;
    97 : 0084;
    98 : 0000;
    99 : 0084;
    100   : 0000;
    101 : 0084;
    102 : 0000;
    103 : 0084;
    104   : 0000;
    105 : 0084;
    106 : 0000;
    107 : 0084;
    108   : 0000;
    109 : 0084;
    110 : 0000;
    111 : 0084;
    112   : 0000;
    113 : 0084;
    114 : 0000;
    115 : 0084;
    116   : 0000;
    117 : 0084;
    118 : 0000;
    119 : 0084;
    120   : 0000;
    121 : 0084;
    122 : 0000;
    123 : 0084;
    124   : 0000;
    125 : 0084;
    126 : 0000;
    127 : 0084;
    128   : 0000;
    129 : 0084;
    130 : 0000;
    131 : 0084;
    132   : 0000;
    133 : 0084;
    134 : 0000;
    135 : 0084;
    136   : 0000;
    137 : 0084;
    138 : 0000;
    139 : 0084;
    140   : 0000;
    141 : 0084;
    142 : 0000;
    143 : 0084;
    144   : 0000;
    145 : 0084;
    146 : 0000;
    147 : 0084;
    148   : 0000;
    149 : 0084;
    150 : 0000;
    151 : 0084;
    152   : 0000;
    153 : 0084;
    154 : 0000;
    155 : 0084;
    156   : 0000;
    157 : 0084;
    158 : 0000;
    159 : 0084;
    160   : 0000;
    161 : 0084;
    162 : 0000;
    163 : 0084;
    164   : 0000;
    165 : 0084;
    166 : 0000;
    167 : 0084;
    168   : 0000;
    169 : 0084;
    170 : 0000;
    171 : 0084;
    172   : 0000;
    173 : 0084;
    174 : 0000;
    175 : 0084;
    176   : 0000;
    177 : 0084;
    178 : 0000;
    179 : 0084;
    180   : 0000;
    181 : 0084;
    182 : 0000;
    183 : 0084;
    184   : 0000;
    185 : 0084;
    186 : 0000;
    187 : 0084;
    188   : 0000;
    189 : 0084;
    190 : 0000;
    191 : 0084;
    192   : 0000;
    193 : 0084;
    194 : 0000;
    195 : 0084;
    196   : 0000;
    197 : 0084;
    198 : 0000;
    199 : 0084;
    200   : 0000;
    201 : 0084;
    202 : 0000;
    203 : 0084;
    204   : 0000;
    205 : 0084;
    206 : 0000;
    207 : 0084;
    208   : 0000;
    209 : 0084;
    210 : 0000;
    211 : 0084;
    212   : 0000;
    213 : 0084;
    214 : 0000;
    215 : 0084;
    216   : 0000;
    217 : 0084;
    218 : 0000;
    219 : 0084;
    220   : 0000;
    221 : 0084;
    222 : 0000;
    223 : 0084;
    224   : 0000;
    225 : 0084;
    226 : 0000;
    227 : 0084;
    228   : 0000;
    229 : 0084;
    230 : 0000;
    231 : 0084;
    232   : 0000;
    233 : 0084;
    234 : 0000;
    235 : 0084;
    236   : 0000;
    237 : 0084;
    238 : 0000;
    239 : 0084;
    240   : 0000;
    241 : 0084;
    242 : 0000;
    243 : 0084;
    244   : 0000;
    245 : 0084;
    246 : 0000;
    247 : 0084;
    248   : 0000;
    249 : 0084;
    250 : 0000;
    251 : 0084;
    252   : 0000;
    253 : 0084;
    254 : 0000;
    255 : 0084;
END;
