WIDTH=16;
DEPTH=256;
ADDRESS_RADIX=UNS;
DATA_RADIX=HEX;
CONTENT BEGIN
    0   : 0000;
    1 : 00dc;
    2 : 0000;
    3 : 00dc;
    4   : 0000;
    5 : 00dc;
    6 : 0000;
    7 : 00dc;
    8   : 0000;
    9 : 00dc;
    10 : 0000;
    11 : 00dc;
    12   : 0000;
    13 : 00dc;
    14 : 0000;
    15 : 00dc;
    16   : 0000;
    17 : 00dc;
    18 : 0000;
    19 : 00dc;
    20   : 0000;
    21 : 00dc;
    22 : 0000;
    23 : 00dc;
    24   : 0000;
    25 : 00dc;
    26 : 0000;
    27 : 00dc;
    28   : 0000;
    29 : 00dc;
    30 : 0000;
    31 : 00dc;
    32   : 0000;
    33 : 00dc;
    34 : 0000;
    35 : 00dc;
    36   : 0000;
    37 : 00dc;
    38 : 0000;
    39 : 00dc;
    40   : 0000;
    41 : 00dc;
    42 : 0000;
    43 : 00dc;
    44   : 0000;
    45 : 00dc;
    46 : 0000;
    47 : 00dc;
    48   : 0000;
    49 : 00dc;
    50 : 0000;
    51 : 00dc;
    52   : 0000;
    53 : 00dc;
    54 : 0000;
    55 : 00dc;
    56   : 0000;
    57 : 00dc;
    58 : 0000;
    59 : 00dc;
    60   : 0000;
    61 : 00dc;
    62 : 0000;
    63 : 00dc;
    64   : 0000;
    65 : 00dc;
    66 : 0000;
    67 : 00dc;
    68   : 0000;
    69 : 00dc;
    70 : 0000;
    71 : 00dc;
    72   : 0000;
    73 : 00dc;
    74 : 0000;
    75 : 00dc;
    76   : 0000;
    77 : 00dc;
    78 : 0000;
    79 : 00dc;
    80   : 0000;
    81 : 00dc;
    82 : 0000;
    83 : 00dc;
    84   : 0000;
    85 : 00dc;
    86 : 0000;
    87 : 00dc;
    88   : 0000;
    89 : 00dc;
    90 : 0000;
    91 : 00dc;
    92   : 0000;
    93 : 00dc;
    94 : 0000;
    95 : 00dc;
    96   : 0000;
    97 : 00dc;
    98 : 0000;
    99 : 00dc;
    100   : 0000;
    101 : 00dc;
    102 : 0000;
    103 : 00dc;
    104   : 0000;
    105 : 00dc;
    106 : 0000;
    107 : 00dc;
    108   : 0000;
    109 : 00dc;
    110 : 0000;
    111 : 00dc;
    112   : 0000;
    113 : 00dc;
    114 : 0000;
    115 : 00dc;
    116   : 0000;
    117 : 00dc;
    118 : 0000;
    119 : 00dc;
    120   : 0000;
    121 : 00dc;
    122 : 0000;
    123 : 00dc;
    124   : 0000;
    125 : 00dc;
    126 : 0000;
    127 : 00dc;
    128   : 0000;
    129 : 00dc;
    130 : 0000;
    131 : 00dc;
    132   : 0000;
    133 : 00dc;
    134 : 0000;
    135 : 00dc;
    136   : 0000;
    137 : 00dc;
    138 : 0000;
    139 : 00dc;
    140   : 0000;
    141 : 00dc;
    142 : 0000;
    143 : 00dc;
    144   : 0000;
    145 : 00dc;
    146 : 0000;
    147 : 00dc;
    148   : 0000;
    149 : 00dc;
    150 : 0000;
    151 : 00dc;
    152   : 0000;
    153 : 00dc;
    154 : 0000;
    155 : 00dc;
    156   : 0000;
    157 : 00dc;
    158 : 0000;
    159 : 00dc;
    160   : 0000;
    161 : 00dc;
    162 : 0000;
    163 : 00dc;
    164   : 0000;
    165 : 00dc;
    166 : 0000;
    167 : 00dc;
    168   : 0000;
    169 : 00dc;
    170 : 0000;
    171 : 00dc;
    172   : 0000;
    173 : 00dc;
    174 : 0000;
    175 : 00dc;
    176   : 0000;
    177 : 00dc;
    178 : 0000;
    179 : 00dc;
    180   : 0000;
    181 : 00dc;
    182 : 0000;
    183 : 00dc;
    184   : 0000;
    185 : 00dc;
    186 : 0000;
    187 : 00dc;
    188   : 0000;
    189 : 00dc;
    190 : 0000;
    191 : 00dc;
    192   : 0000;
    193 : 00dc;
    194 : 0000;
    195 : 00dc;
    196   : 0000;
    197 : 00dc;
    198 : 0000;
    199 : 00dc;
    200   : 0000;
    201 : 00dc;
    202 : 0000;
    203 : 00dc;
    204   : 0000;
    205 : 00dc;
    206 : 0000;
    207 : 00dc;
    208   : 0000;
    209 : 00dc;
    210 : 0000;
    211 : 00dc;
    212   : 0000;
    213 : 00dc;
    214 : 0000;
    215 : 00dc;
    216   : 0000;
    217 : 00dc;
    218 : 0000;
    219 : 00dc;
    220   : 0000;
    221 : 00dc;
    222 : 0000;
    223 : 00dc;
    224   : 0000;
    225 : 00dc;
    226 : 0000;
    227 : 00dc;
    228   : 0000;
    229 : 00dc;
    230 : 0000;
    231 : 00dc;
    232   : 0000;
    233 : 00dc;
    234 : 0000;
    235 : 00dc;
    236   : 0000;
    237 : 00dc;
    238 : 0000;
    239 : 00dc;
    240   : 0000;
    241 : 00dc;
    242 : 0000;
    243 : 00dc;
    244   : 0000;
    245 : 00dc;
    246 : 0000;
    247 : 00dc;
    248   : 0000;
    249 : 00dc;
    250 : 0000;
    251 : 00dc;
    252   : 0000;
    253 : 00dc;
    254 : 0000;
    255 : 00dc;
END;
