WIDTH=16;
DEPTH=256;
ADDRESS_RADIX=UNS;
DATA_RADIX=HEX;
CONTENT BEGIN
    0   : 0000;
    1 : 00fa;
    2 : 0000;
    3 : 00fa;
    4   : 0000;
    5 : 00fa;
    6 : 0000;
    7 : 00fa;
    8   : 0000;
    9 : 00fa;
    10 : 0000;
    11 : 00fa;
    12   : 0000;
    13 : 00fa;
    14 : 0000;
    15 : 00fa;
    16   : 0000;
    17 : 00fa;
    18 : 0000;
    19 : 00fa;
    20   : 0000;
    21 : 00fa;
    22 : 0000;
    23 : 00fa;
    24   : 0000;
    25 : 00fa;
    26 : 0000;
    27 : 00fa;
    28   : 0000;
    29 : 00fa;
    30 : 0000;
    31 : 00fa;
    32   : 0000;
    33 : 00fa;
    34 : 0000;
    35 : 00fa;
    36   : 0000;
    37 : 00fa;
    38 : 0000;
    39 : 00fa;
    40   : 0000;
    41 : 00fa;
    42 : 0000;
    43 : 00fa;
    44   : 0000;
    45 : 00fa;
    46 : 0000;
    47 : 00fa;
    48   : 0000;
    49 : 00fa;
    50 : 0000;
    51 : 00fa;
    52   : 0000;
    53 : 00fa;
    54 : 0000;
    55 : 00fa;
    56   : 0000;
    57 : 00fa;
    58 : 0000;
    59 : 00fa;
    60   : 0000;
    61 : 00fa;
    62 : 0000;
    63 : 00fa;
    64   : 0000;
    65 : 00fa;
    66 : 0000;
    67 : 00fa;
    68   : 0000;
    69 : 00fa;
    70 : 0000;
    71 : 00fa;
    72   : 0000;
    73 : 00fa;
    74 : 0000;
    75 : 00fa;
    76   : 0000;
    77 : 00fa;
    78 : 0000;
    79 : 00fa;
    80   : 0000;
    81 : 00fa;
    82 : 0000;
    83 : 00fa;
    84   : 0000;
    85 : 00fa;
    86 : 0000;
    87 : 00fa;
    88   : 0000;
    89 : 00fa;
    90 : 0000;
    91 : 00fa;
    92   : 0000;
    93 : 00fa;
    94 : 0000;
    95 : 00fa;
    96   : 0000;
    97 : 00fa;
    98 : 0000;
    99 : 00fa;
    100   : 0000;
    101 : 00fa;
    102 : 0000;
    103 : 00fa;
    104   : 0000;
    105 : 00fa;
    106 : 0000;
    107 : 00fa;
    108   : 0000;
    109 : 00fa;
    110 : 0000;
    111 : 00fa;
    112   : 0000;
    113 : 00fa;
    114 : 0000;
    115 : 00fa;
    116   : 0000;
    117 : 00fa;
    118 : 0000;
    119 : 00fa;
    120   : 0000;
    121 : 00fa;
    122 : 0000;
    123 : 00fa;
    124   : 0000;
    125 : 00fa;
    126 : 0000;
    127 : 00fa;
    128   : 0000;
    129 : 00fa;
    130 : 0000;
    131 : 00fa;
    132   : 0000;
    133 : 00fa;
    134 : 0000;
    135 : 00fa;
    136   : 0000;
    137 : 00fa;
    138 : 0000;
    139 : 00fa;
    140   : 0000;
    141 : 00fa;
    142 : 0000;
    143 : 00fa;
    144   : 0000;
    145 : 00fa;
    146 : 0000;
    147 : 00fa;
    148   : 0000;
    149 : 00fa;
    150 : 0000;
    151 : 00fa;
    152   : 0000;
    153 : 00fa;
    154 : 0000;
    155 : 00fa;
    156   : 0000;
    157 : 00fa;
    158 : 0000;
    159 : 00fa;
    160   : 0000;
    161 : 00fa;
    162 : 0000;
    163 : 00fa;
    164   : 0000;
    165 : 00fa;
    166 : 0000;
    167 : 00fa;
    168   : 0000;
    169 : 00fa;
    170 : 0000;
    171 : 00fa;
    172   : 0000;
    173 : 00fa;
    174 : 0000;
    175 : 00fa;
    176   : 0000;
    177 : 00fa;
    178 : 0000;
    179 : 00fa;
    180   : 0000;
    181 : 00fa;
    182 : 0000;
    183 : 00fa;
    184   : 0000;
    185 : 00fa;
    186 : 0000;
    187 : 00fa;
    188   : 0000;
    189 : 00fa;
    190 : 0000;
    191 : 00fa;
    192   : 0000;
    193 : 00fa;
    194 : 0000;
    195 : 00fa;
    196   : 0000;
    197 : 00fa;
    198 : 0000;
    199 : 00fa;
    200   : 0000;
    201 : 00fa;
    202 : 0000;
    203 : 00fa;
    204   : 0000;
    205 : 00fa;
    206 : 0000;
    207 : 00fa;
    208   : 0000;
    209 : 00fa;
    210 : 0000;
    211 : 00fa;
    212   : 0000;
    213 : 00fa;
    214 : 0000;
    215 : 00fa;
    216   : 0000;
    217 : 00fa;
    218 : 0000;
    219 : 00fa;
    220   : 0000;
    221 : 00fa;
    222 : 0000;
    223 : 00fa;
    224   : 0000;
    225 : 00fa;
    226 : 0000;
    227 : 00fa;
    228   : 0000;
    229 : 00fa;
    230 : 0000;
    231 : 00fa;
    232   : 0000;
    233 : 00fa;
    234 : 0000;
    235 : 00fa;
    236   : 0000;
    237 : 00fa;
    238 : 0000;
    239 : 00fa;
    240   : 0000;
    241 : 00fa;
    242 : 0000;
    243 : 00fa;
    244   : 0000;
    245 : 00fa;
    246 : 0000;
    247 : 00fa;
    248   : 0000;
    249 : 00fa;
    250 : 0000;
    251 : 00fa;
    252   : 0000;
    253 : 00fa;
    254 : 0000;
    255 : 00fa;
END;
