WIDTH=16;
DEPTH=256;
ADDRESS_RADIX=UNS;
DATA_RADIX=HEX;
CONTENT BEGIN
    0   : 0000;
    1 : 00ec;
    2 : 0000;
    3 : 00ec;
    4   : 0000;
    5 : 00ec;
    6 : 0000;
    7 : 00ec;
    8   : 0000;
    9 : 00ec;
    10 : 0000;
    11 : 00ec;
    12   : 0000;
    13 : 00ec;
    14 : 0000;
    15 : 00ec;
    16   : 0000;
    17 : 00ec;
    18 : 0000;
    19 : 00ec;
    20   : 0000;
    21 : 00ec;
    22 : 0000;
    23 : 00ec;
    24   : 0000;
    25 : 00ec;
    26 : 0000;
    27 : 00ec;
    28   : 0000;
    29 : 00ec;
    30 : 0000;
    31 : 00ec;
    32   : 0000;
    33 : 00ec;
    34 : 0000;
    35 : 00ec;
    36   : 0000;
    37 : 00ec;
    38 : 0000;
    39 : 00ec;
    40   : 0000;
    41 : 00ec;
    42 : 0000;
    43 : 00ec;
    44   : 0000;
    45 : 00ec;
    46 : 0000;
    47 : 00ec;
    48   : 0000;
    49 : 00ec;
    50 : 0000;
    51 : 00ec;
    52   : 0000;
    53 : 00ec;
    54 : 0000;
    55 : 00ec;
    56   : 0000;
    57 : 00ec;
    58 : 0000;
    59 : 00ec;
    60   : 0000;
    61 : 00ec;
    62 : 0000;
    63 : 00ec;
    64   : 0000;
    65 : 00ec;
    66 : 0000;
    67 : 00ec;
    68   : 0000;
    69 : 00ec;
    70 : 0000;
    71 : 00ec;
    72   : 0000;
    73 : 00ec;
    74 : 0000;
    75 : 00ec;
    76   : 0000;
    77 : 00ec;
    78 : 0000;
    79 : 00ec;
    80   : 0000;
    81 : 00ec;
    82 : 0000;
    83 : 00ec;
    84   : 0000;
    85 : 00ec;
    86 : 0000;
    87 : 00ec;
    88   : 0000;
    89 : 00ec;
    90 : 0000;
    91 : 00ec;
    92   : 0000;
    93 : 00ec;
    94 : 0000;
    95 : 00ec;
    96   : 0000;
    97 : 00ec;
    98 : 0000;
    99 : 00ec;
    100   : 0000;
    101 : 00ec;
    102 : 0000;
    103 : 00ec;
    104   : 0000;
    105 : 00ec;
    106 : 0000;
    107 : 00ec;
    108   : 0000;
    109 : 00ec;
    110 : 0000;
    111 : 00ec;
    112   : 0000;
    113 : 00ec;
    114 : 0000;
    115 : 00ec;
    116   : 0000;
    117 : 00ec;
    118 : 0000;
    119 : 00ec;
    120   : 0000;
    121 : 00ec;
    122 : 0000;
    123 : 00ec;
    124   : 0000;
    125 : 00ec;
    126 : 0000;
    127 : 00ec;
    128   : 0000;
    129 : 00ec;
    130 : 0000;
    131 : 00ec;
    132   : 0000;
    133 : 00ec;
    134 : 0000;
    135 : 00ec;
    136   : 0000;
    137 : 00ec;
    138 : 0000;
    139 : 00ec;
    140   : 0000;
    141 : 00ec;
    142 : 0000;
    143 : 00ec;
    144   : 0000;
    145 : 00ec;
    146 : 0000;
    147 : 00ec;
    148   : 0000;
    149 : 00ec;
    150 : 0000;
    151 : 00ec;
    152   : 0000;
    153 : 00ec;
    154 : 0000;
    155 : 00ec;
    156   : 0000;
    157 : 00ec;
    158 : 0000;
    159 : 00ec;
    160   : 0000;
    161 : 00ec;
    162 : 0000;
    163 : 00ec;
    164   : 0000;
    165 : 00ec;
    166 : 0000;
    167 : 00ec;
    168   : 0000;
    169 : 00ec;
    170 : 0000;
    171 : 00ec;
    172   : 0000;
    173 : 00ec;
    174 : 0000;
    175 : 00ec;
    176   : 0000;
    177 : 00ec;
    178 : 0000;
    179 : 00ec;
    180   : 0000;
    181 : 00ec;
    182 : 0000;
    183 : 00ec;
    184   : 0000;
    185 : 00ec;
    186 : 0000;
    187 : 00ec;
    188   : 0000;
    189 : 00ec;
    190 : 0000;
    191 : 00ec;
    192   : 0000;
    193 : 00ec;
    194 : 0000;
    195 : 00ec;
    196   : 0000;
    197 : 00ec;
    198 : 0000;
    199 : 00ec;
    200   : 0000;
    201 : 00ec;
    202 : 0000;
    203 : 00ec;
    204   : 0000;
    205 : 00ec;
    206 : 0000;
    207 : 00ec;
    208   : 0000;
    209 : 00ec;
    210 : 0000;
    211 : 00ec;
    212   : 0000;
    213 : 00ec;
    214 : 0000;
    215 : 00ec;
    216   : 0000;
    217 : 00ec;
    218 : 0000;
    219 : 00ec;
    220   : 0000;
    221 : 00ec;
    222 : 0000;
    223 : 00ec;
    224   : 0000;
    225 : 00ec;
    226 : 0000;
    227 : 00ec;
    228   : 0000;
    229 : 00ec;
    230 : 0000;
    231 : 00ec;
    232   : 0000;
    233 : 00ec;
    234 : 0000;
    235 : 00ec;
    236   : 0000;
    237 : 00ec;
    238 : 0000;
    239 : 00ec;
    240   : 0000;
    241 : 00ec;
    242 : 0000;
    243 : 00ec;
    244   : 0000;
    245 : 00ec;
    246 : 0000;
    247 : 00ec;
    248   : 0000;
    249 : 00ec;
    250 : 0000;
    251 : 00ec;
    252   : 0000;
    253 : 00ec;
    254 : 0000;
    255 : 00ec;
END;
