WIDTH=16;
DEPTH=256;
ADDRESS_RADIX=UNS;
DATA_RADIX=HEX;
CONTENT BEGIN
    0   : 0000;
    1 : 00fe;
    2 : 0000;
    3 : 00fe;
    4   : 0000;
    5 : 00fe;
    6 : 0000;
    7 : 00fe;
    8   : 0000;
    9 : 00fe;
    10 : 0000;
    11 : 00fe;
    12   : 0000;
    13 : 00fe;
    14 : 0000;
    15 : 00fe;
    16   : 0000;
    17 : 00fe;
    18 : 0000;
    19 : 00fe;
    20   : 0000;
    21 : 00fe;
    22 : 0000;
    23 : 00fe;
    24   : 0000;
    25 : 00fe;
    26 : 0000;
    27 : 00fe;
    28   : 0000;
    29 : 00fe;
    30 : 0000;
    31 : 00fe;
    32   : 0000;
    33 : 00fe;
    34 : 0000;
    35 : 00fe;
    36   : 0000;
    37 : 00fe;
    38 : 0000;
    39 : 00fe;
    40   : 0000;
    41 : 00fe;
    42 : 0000;
    43 : 00fe;
    44   : 0000;
    45 : 00fe;
    46 : 0000;
    47 : 00fe;
    48   : 0000;
    49 : 00fe;
    50 : 0000;
    51 : 00fe;
    52   : 0000;
    53 : 00fe;
    54 : 0000;
    55 : 00fe;
    56   : 0000;
    57 : 00fe;
    58 : 0000;
    59 : 00fe;
    60   : 0000;
    61 : 00fe;
    62 : 0000;
    63 : 00fe;
    64   : 0000;
    65 : 00fe;
    66 : 0000;
    67 : 00fe;
    68   : 0000;
    69 : 00fe;
    70 : 0000;
    71 : 00fe;
    72   : 0000;
    73 : 00fe;
    74 : 0000;
    75 : 00fe;
    76   : 0000;
    77 : 00fe;
    78 : 0000;
    79 : 00fe;
    80   : 0000;
    81 : 00fe;
    82 : 0000;
    83 : 00fe;
    84   : 0000;
    85 : 00fe;
    86 : 0000;
    87 : 00fe;
    88   : 0000;
    89 : 00fe;
    90 : 0000;
    91 : 00fe;
    92   : 0000;
    93 : 00fe;
    94 : 0000;
    95 : 00fe;
    96   : 0000;
    97 : 00fe;
    98 : 0000;
    99 : 00fe;
    100   : 0000;
    101 : 00fe;
    102 : 0000;
    103 : 00fe;
    104   : 0000;
    105 : 00fe;
    106 : 0000;
    107 : 00fe;
    108   : 0000;
    109 : 00fe;
    110 : 0000;
    111 : 00fe;
    112   : 0000;
    113 : 00fe;
    114 : 0000;
    115 : 00fe;
    116   : 0000;
    117 : 00fe;
    118 : 0000;
    119 : 00fe;
    120   : 0000;
    121 : 00fe;
    122 : 0000;
    123 : 00fe;
    124   : 0000;
    125 : 00fe;
    126 : 0000;
    127 : 00fe;
    128   : 0000;
    129 : 00fe;
    130 : 0000;
    131 : 00fe;
    132   : 0000;
    133 : 00fe;
    134 : 0000;
    135 : 00fe;
    136   : 0000;
    137 : 00fe;
    138 : 0000;
    139 : 00fe;
    140   : 0000;
    141 : 00fe;
    142 : 0000;
    143 : 00fe;
    144   : 0000;
    145 : 00fe;
    146 : 0000;
    147 : 00fe;
    148   : 0000;
    149 : 00fe;
    150 : 0000;
    151 : 00fe;
    152   : 0000;
    153 : 00fe;
    154 : 0000;
    155 : 00fe;
    156   : 0000;
    157 : 00fe;
    158 : 0000;
    159 : 00fe;
    160   : 0000;
    161 : 00fe;
    162 : 0000;
    163 : 00fe;
    164   : 0000;
    165 : 00fe;
    166 : 0000;
    167 : 00fe;
    168   : 0000;
    169 : 00fe;
    170 : 0000;
    171 : 00fe;
    172   : 0000;
    173 : 00fe;
    174 : 0000;
    175 : 00fe;
    176   : 0000;
    177 : 00fe;
    178 : 0000;
    179 : 00fe;
    180   : 0000;
    181 : 00fe;
    182 : 0000;
    183 : 00fe;
    184   : 0000;
    185 : 00fe;
    186 : 0000;
    187 : 00fe;
    188   : 0000;
    189 : 00fe;
    190 : 0000;
    191 : 00fe;
    192   : 0000;
    193 : 00fe;
    194 : 0000;
    195 : 00fe;
    196   : 0000;
    197 : 00fe;
    198 : 0000;
    199 : 00fe;
    200   : 0000;
    201 : 00fe;
    202 : 0000;
    203 : 00fe;
    204   : 0000;
    205 : 00fe;
    206 : 0000;
    207 : 00fe;
    208   : 0000;
    209 : 00fe;
    210 : 0000;
    211 : 00fe;
    212   : 0000;
    213 : 00fe;
    214 : 0000;
    215 : 00fe;
    216   : 0000;
    217 : 00fe;
    218 : 0000;
    219 : 00fe;
    220   : 0000;
    221 : 00fe;
    222 : 0000;
    223 : 00fe;
    224   : 0000;
    225 : 00fe;
    226 : 0000;
    227 : 00fe;
    228   : 0000;
    229 : 00fe;
    230 : 0000;
    231 : 00fe;
    232   : 0000;
    233 : 00fe;
    234 : 0000;
    235 : 00fe;
    236   : 0000;
    237 : 00fe;
    238 : 0000;
    239 : 00fe;
    240   : 0000;
    241 : 00fe;
    242 : 0000;
    243 : 00fe;
    244   : 0000;
    245 : 00fe;
    246 : 0000;
    247 : 00fe;
    248   : 0000;
    249 : 00fe;
    250 : 0000;
    251 : 00fe;
    252   : 0000;
    253 : 00fe;
    254 : 0000;
    255 : 00fe;
END;
