WIDTH=16;
DEPTH=256;
ADDRESS_RADIX=UNS;
DATA_RADIX=HEX;
CONTENT BEGIN
    0   : 0000;
    1 : 0082;
    2 : 0000;
    3 : 0082;
    4   : 0000;
    5 : 0082;
    6 : 0000;
    7 : 0082;
    8   : 0000;
    9 : 0082;
    10 : 0000;
    11 : 0082;
    12   : 0000;
    13 : 0082;
    14 : 0000;
    15 : 0082;
    16   : 0000;
    17 : 0082;
    18 : 0000;
    19 : 0082;
    20   : 0000;
    21 : 0082;
    22 : 0000;
    23 : 0082;
    24   : 0000;
    25 : 0082;
    26 : 0000;
    27 : 0082;
    28   : 0000;
    29 : 0082;
    30 : 0000;
    31 : 0082;
    32   : 0000;
    33 : 0082;
    34 : 0000;
    35 : 0082;
    36   : 0000;
    37 : 0082;
    38 : 0000;
    39 : 0082;
    40   : 0000;
    41 : 0082;
    42 : 0000;
    43 : 0082;
    44   : 0000;
    45 : 0082;
    46 : 0000;
    47 : 0082;
    48   : 0000;
    49 : 0082;
    50 : 0000;
    51 : 0082;
    52   : 0000;
    53 : 0082;
    54 : 0000;
    55 : 0082;
    56   : 0000;
    57 : 0082;
    58 : 0000;
    59 : 0082;
    60   : 0000;
    61 : 0082;
    62 : 0000;
    63 : 0082;
    64   : 0000;
    65 : 0082;
    66 : 0000;
    67 : 0082;
    68   : 0000;
    69 : 0082;
    70 : 0000;
    71 : 0082;
    72   : 0000;
    73 : 0082;
    74 : 0000;
    75 : 0082;
    76   : 0000;
    77 : 0082;
    78 : 0000;
    79 : 0082;
    80   : 0000;
    81 : 0082;
    82 : 0000;
    83 : 0082;
    84   : 0000;
    85 : 0082;
    86 : 0000;
    87 : 0082;
    88   : 0000;
    89 : 0082;
    90 : 0000;
    91 : 0082;
    92   : 0000;
    93 : 0082;
    94 : 0000;
    95 : 0082;
    96   : 0000;
    97 : 0082;
    98 : 0000;
    99 : 0082;
    100   : 0000;
    101 : 0082;
    102 : 0000;
    103 : 0082;
    104   : 0000;
    105 : 0082;
    106 : 0000;
    107 : 0082;
    108   : 0000;
    109 : 0082;
    110 : 0000;
    111 : 0082;
    112   : 0000;
    113 : 0082;
    114 : 0000;
    115 : 0082;
    116   : 0000;
    117 : 0082;
    118 : 0000;
    119 : 0082;
    120   : 0000;
    121 : 0082;
    122 : 0000;
    123 : 0082;
    124   : 0000;
    125 : 0082;
    126 : 0000;
    127 : 0082;
    128   : 0000;
    129 : 0082;
    130 : 0000;
    131 : 0082;
    132   : 0000;
    133 : 0082;
    134 : 0000;
    135 : 0082;
    136   : 0000;
    137 : 0082;
    138 : 0000;
    139 : 0082;
    140   : 0000;
    141 : 0082;
    142 : 0000;
    143 : 0082;
    144   : 0000;
    145 : 0082;
    146 : 0000;
    147 : 0082;
    148   : 0000;
    149 : 0082;
    150 : 0000;
    151 : 0082;
    152   : 0000;
    153 : 0082;
    154 : 0000;
    155 : 0082;
    156   : 0000;
    157 : 0082;
    158 : 0000;
    159 : 0082;
    160   : 0000;
    161 : 0082;
    162 : 0000;
    163 : 0082;
    164   : 0000;
    165 : 0082;
    166 : 0000;
    167 : 0082;
    168   : 0000;
    169 : 0082;
    170 : 0000;
    171 : 0082;
    172   : 0000;
    173 : 0082;
    174 : 0000;
    175 : 0082;
    176   : 0000;
    177 : 0082;
    178 : 0000;
    179 : 0082;
    180   : 0000;
    181 : 0082;
    182 : 0000;
    183 : 0082;
    184   : 0000;
    185 : 0082;
    186 : 0000;
    187 : 0082;
    188   : 0000;
    189 : 0082;
    190 : 0000;
    191 : 0082;
    192   : 0000;
    193 : 0082;
    194 : 0000;
    195 : 0082;
    196   : 0000;
    197 : 0082;
    198 : 0000;
    199 : 0082;
    200   : 0000;
    201 : 0082;
    202 : 0000;
    203 : 0082;
    204   : 0000;
    205 : 0082;
    206 : 0000;
    207 : 0082;
    208   : 0000;
    209 : 0082;
    210 : 0000;
    211 : 0082;
    212   : 0000;
    213 : 0082;
    214 : 0000;
    215 : 0082;
    216   : 0000;
    217 : 0082;
    218 : 0000;
    219 : 0082;
    220   : 0000;
    221 : 0082;
    222 : 0000;
    223 : 0082;
    224   : 0000;
    225 : 0082;
    226 : 0000;
    227 : 0082;
    228   : 0000;
    229 : 0082;
    230 : 0000;
    231 : 0082;
    232   : 0000;
    233 : 0082;
    234 : 0000;
    235 : 0082;
    236   : 0000;
    237 : 0082;
    238 : 0000;
    239 : 0082;
    240   : 0000;
    241 : 0082;
    242 : 0000;
    243 : 0082;
    244   : 0000;
    245 : 0082;
    246 : 0000;
    247 : 0082;
    248   : 0000;
    249 : 0082;
    250 : 0000;
    251 : 0082;
    252   : 0000;
    253 : 0082;
    254 : 0000;
    255 : 0082;
END;
