WIDTH=16;
DEPTH=256;
ADDRESS_RADIX=UNS;
DATA_RADIX=HEX;
CONTENT BEGIN
    0   : 0000;
    1 : 00e6;
    2 : 0000;
    3 : 00e6;
    4   : 0000;
    5 : 00e6;
    6 : 0000;
    7 : 00e6;
    8   : 0000;
    9 : 00e6;
    10 : 0000;
    11 : 00e6;
    12   : 0000;
    13 : 00e6;
    14 : 0000;
    15 : 00e6;
    16   : 0000;
    17 : 00e6;
    18 : 0000;
    19 : 00e6;
    20   : 0000;
    21 : 00e6;
    22 : 0000;
    23 : 00e6;
    24   : 0000;
    25 : 00e6;
    26 : 0000;
    27 : 00e6;
    28   : 0000;
    29 : 00e6;
    30 : 0000;
    31 : 00e6;
    32   : 0000;
    33 : 00e6;
    34 : 0000;
    35 : 00e6;
    36   : 0000;
    37 : 00e6;
    38 : 0000;
    39 : 00e6;
    40   : 0000;
    41 : 00e6;
    42 : 0000;
    43 : 00e6;
    44   : 0000;
    45 : 00e6;
    46 : 0000;
    47 : 00e6;
    48   : 0000;
    49 : 00e6;
    50 : 0000;
    51 : 00e6;
    52   : 0000;
    53 : 00e6;
    54 : 0000;
    55 : 00e6;
    56   : 0000;
    57 : 00e6;
    58 : 0000;
    59 : 00e6;
    60   : 0000;
    61 : 00e6;
    62 : 0000;
    63 : 00e6;
    64   : 0000;
    65 : 00e6;
    66 : 0000;
    67 : 00e6;
    68   : 0000;
    69 : 00e6;
    70 : 0000;
    71 : 00e6;
    72   : 0000;
    73 : 00e6;
    74 : 0000;
    75 : 00e6;
    76   : 0000;
    77 : 00e6;
    78 : 0000;
    79 : 00e6;
    80   : 0000;
    81 : 00e6;
    82 : 0000;
    83 : 00e6;
    84   : 0000;
    85 : 00e6;
    86 : 0000;
    87 : 00e6;
    88   : 0000;
    89 : 00e6;
    90 : 0000;
    91 : 00e6;
    92   : 0000;
    93 : 00e6;
    94 : 0000;
    95 : 00e6;
    96   : 0000;
    97 : 00e6;
    98 : 0000;
    99 : 00e6;
    100   : 0000;
    101 : 00e6;
    102 : 0000;
    103 : 00e6;
    104   : 0000;
    105 : 00e6;
    106 : 0000;
    107 : 00e6;
    108   : 0000;
    109 : 00e6;
    110 : 0000;
    111 : 00e6;
    112   : 0000;
    113 : 00e6;
    114 : 0000;
    115 : 00e6;
    116   : 0000;
    117 : 00e6;
    118 : 0000;
    119 : 00e6;
    120   : 0000;
    121 : 00e6;
    122 : 0000;
    123 : 00e6;
    124   : 0000;
    125 : 00e6;
    126 : 0000;
    127 : 00e6;
    128   : 0000;
    129 : 00e6;
    130 : 0000;
    131 : 00e6;
    132   : 0000;
    133 : 00e6;
    134 : 0000;
    135 : 00e6;
    136   : 0000;
    137 : 00e6;
    138 : 0000;
    139 : 00e6;
    140   : 0000;
    141 : 00e6;
    142 : 0000;
    143 : 00e6;
    144   : 0000;
    145 : 00e6;
    146 : 0000;
    147 : 00e6;
    148   : 0000;
    149 : 00e6;
    150 : 0000;
    151 : 00e6;
    152   : 0000;
    153 : 00e6;
    154 : 0000;
    155 : 00e6;
    156   : 0000;
    157 : 00e6;
    158 : 0000;
    159 : 00e6;
    160   : 0000;
    161 : 00e6;
    162 : 0000;
    163 : 00e6;
    164   : 0000;
    165 : 00e6;
    166 : 0000;
    167 : 00e6;
    168   : 0000;
    169 : 00e6;
    170 : 0000;
    171 : 00e6;
    172   : 0000;
    173 : 00e6;
    174 : 0000;
    175 : 00e6;
    176   : 0000;
    177 : 00e6;
    178 : 0000;
    179 : 00e6;
    180   : 0000;
    181 : 00e6;
    182 : 0000;
    183 : 00e6;
    184   : 0000;
    185 : 00e6;
    186 : 0000;
    187 : 00e6;
    188   : 0000;
    189 : 00e6;
    190 : 0000;
    191 : 00e6;
    192   : 0000;
    193 : 00e6;
    194 : 0000;
    195 : 00e6;
    196   : 0000;
    197 : 00e6;
    198 : 0000;
    199 : 00e6;
    200   : 0000;
    201 : 00e6;
    202 : 0000;
    203 : 00e6;
    204   : 0000;
    205 : 00e6;
    206 : 0000;
    207 : 00e6;
    208   : 0000;
    209 : 00e6;
    210 : 0000;
    211 : 00e6;
    212   : 0000;
    213 : 00e6;
    214 : 0000;
    215 : 00e6;
    216   : 0000;
    217 : 00e6;
    218 : 0000;
    219 : 00e6;
    220   : 0000;
    221 : 00e6;
    222 : 0000;
    223 : 00e6;
    224   : 0000;
    225 : 00e6;
    226 : 0000;
    227 : 00e6;
    228   : 0000;
    229 : 00e6;
    230 : 0000;
    231 : 00e6;
    232   : 0000;
    233 : 00e6;
    234 : 0000;
    235 : 00e6;
    236   : 0000;
    237 : 00e6;
    238 : 0000;
    239 : 00e6;
    240   : 0000;
    241 : 00e6;
    242 : 0000;
    243 : 00e6;
    244   : 0000;
    245 : 00e6;
    246 : 0000;
    247 : 00e6;
    248   : 0000;
    249 : 00e6;
    250 : 0000;
    251 : 00e6;
    252   : 0000;
    253 : 00e6;
    254 : 0000;
    255 : 00e6;
END;
