WIDTH=16;
DEPTH=256;
ADDRESS_RADIX=UNS;
DATA_RADIX=HEX;
CONTENT BEGIN
    0   : 0000;
    1 : 00a6;
    2 : 0000;
    3 : 00a6;
    4   : 0000;
    5 : 00a6;
    6 : 0000;
    7 : 00a6;
    8   : 0000;
    9 : 00a6;
    10 : 0000;
    11 : 00a6;
    12   : 0000;
    13 : 00a6;
    14 : 0000;
    15 : 00a6;
    16   : 0000;
    17 : 00a6;
    18 : 0000;
    19 : 00a6;
    20   : 0000;
    21 : 00a6;
    22 : 0000;
    23 : 00a6;
    24   : 0000;
    25 : 00a6;
    26 : 0000;
    27 : 00a6;
    28   : 0000;
    29 : 00a6;
    30 : 0000;
    31 : 00a6;
    32   : 0000;
    33 : 00a6;
    34 : 0000;
    35 : 00a6;
    36   : 0000;
    37 : 00a6;
    38 : 0000;
    39 : 00a6;
    40   : 0000;
    41 : 00a6;
    42 : 0000;
    43 : 00a6;
    44   : 0000;
    45 : 00a6;
    46 : 0000;
    47 : 00a6;
    48   : 0000;
    49 : 00a6;
    50 : 0000;
    51 : 00a6;
    52   : 0000;
    53 : 00a6;
    54 : 0000;
    55 : 00a6;
    56   : 0000;
    57 : 00a6;
    58 : 0000;
    59 : 00a6;
    60   : 0000;
    61 : 00a6;
    62 : 0000;
    63 : 00a6;
    64   : 0000;
    65 : 00a6;
    66 : 0000;
    67 : 00a6;
    68   : 0000;
    69 : 00a6;
    70 : 0000;
    71 : 00a6;
    72   : 0000;
    73 : 00a6;
    74 : 0000;
    75 : 00a6;
    76   : 0000;
    77 : 00a6;
    78 : 0000;
    79 : 00a6;
    80   : 0000;
    81 : 00a6;
    82 : 0000;
    83 : 00a6;
    84   : 0000;
    85 : 00a6;
    86 : 0000;
    87 : 00a6;
    88   : 0000;
    89 : 00a6;
    90 : 0000;
    91 : 00a6;
    92   : 0000;
    93 : 00a6;
    94 : 0000;
    95 : 00a6;
    96   : 0000;
    97 : 00a6;
    98 : 0000;
    99 : 00a6;
    100   : 0000;
    101 : 00a6;
    102 : 0000;
    103 : 00a6;
    104   : 0000;
    105 : 00a6;
    106 : 0000;
    107 : 00a6;
    108   : 0000;
    109 : 00a6;
    110 : 0000;
    111 : 00a6;
    112   : 0000;
    113 : 00a6;
    114 : 0000;
    115 : 00a6;
    116   : 0000;
    117 : 00a6;
    118 : 0000;
    119 : 00a6;
    120   : 0000;
    121 : 00a6;
    122 : 0000;
    123 : 00a6;
    124   : 0000;
    125 : 00a6;
    126 : 0000;
    127 : 00a6;
    128   : 0000;
    129 : 00a6;
    130 : 0000;
    131 : 00a6;
    132   : 0000;
    133 : 00a6;
    134 : 0000;
    135 : 00a6;
    136   : 0000;
    137 : 00a6;
    138 : 0000;
    139 : 00a6;
    140   : 0000;
    141 : 00a6;
    142 : 0000;
    143 : 00a6;
    144   : 0000;
    145 : 00a6;
    146 : 0000;
    147 : 00a6;
    148   : 0000;
    149 : 00a6;
    150 : 0000;
    151 : 00a6;
    152   : 0000;
    153 : 00a6;
    154 : 0000;
    155 : 00a6;
    156   : 0000;
    157 : 00a6;
    158 : 0000;
    159 : 00a6;
    160   : 0000;
    161 : 00a6;
    162 : 0000;
    163 : 00a6;
    164   : 0000;
    165 : 00a6;
    166 : 0000;
    167 : 00a6;
    168   : 0000;
    169 : 00a6;
    170 : 0000;
    171 : 00a6;
    172   : 0000;
    173 : 00a6;
    174 : 0000;
    175 : 00a6;
    176   : 0000;
    177 : 00a6;
    178 : 0000;
    179 : 00a6;
    180   : 0000;
    181 : 00a6;
    182 : 0000;
    183 : 00a6;
    184   : 0000;
    185 : 00a6;
    186 : 0000;
    187 : 00a6;
    188   : 0000;
    189 : 00a6;
    190 : 0000;
    191 : 00a6;
    192   : 0000;
    193 : 00a6;
    194 : 0000;
    195 : 00a6;
    196   : 0000;
    197 : 00a6;
    198 : 0000;
    199 : 00a6;
    200   : 0000;
    201 : 00a6;
    202 : 0000;
    203 : 00a6;
    204   : 0000;
    205 : 00a6;
    206 : 0000;
    207 : 00a6;
    208   : 0000;
    209 : 00a6;
    210 : 0000;
    211 : 00a6;
    212   : 0000;
    213 : 00a6;
    214 : 0000;
    215 : 00a6;
    216   : 0000;
    217 : 00a6;
    218 : 0000;
    219 : 00a6;
    220   : 0000;
    221 : 00a6;
    222 : 0000;
    223 : 00a6;
    224   : 0000;
    225 : 00a6;
    226 : 0000;
    227 : 00a6;
    228   : 0000;
    229 : 00a6;
    230 : 0000;
    231 : 00a6;
    232   : 0000;
    233 : 00a6;
    234 : 0000;
    235 : 00a6;
    236   : 0000;
    237 : 00a6;
    238 : 0000;
    239 : 00a6;
    240   : 0000;
    241 : 00a6;
    242 : 0000;
    243 : 00a6;
    244   : 0000;
    245 : 00a6;
    246 : 0000;
    247 : 00a6;
    248   : 0000;
    249 : 00a6;
    250 : 0000;
    251 : 00a6;
    252   : 0000;
    253 : 00a6;
    254 : 0000;
    255 : 00a6;
END;
