WIDTH=16;
DEPTH=256;
ADDRESS_RADIX=UNS;
DATA_RADIX=HEX;
CONTENT BEGIN
    0   : 0000;
    1 : 00e8;
    2 : 0000;
    3 : 00e8;
    4   : 0000;
    5 : 00e8;
    6 : 0000;
    7 : 00e8;
    8   : 0000;
    9 : 00e8;
    10 : 0000;
    11 : 00e8;
    12   : 0000;
    13 : 00e8;
    14 : 0000;
    15 : 00e8;
    16   : 0000;
    17 : 00e8;
    18 : 0000;
    19 : 00e8;
    20   : 0000;
    21 : 00e8;
    22 : 0000;
    23 : 00e8;
    24   : 0000;
    25 : 00e8;
    26 : 0000;
    27 : 00e8;
    28   : 0000;
    29 : 00e8;
    30 : 0000;
    31 : 00e8;
    32   : 0000;
    33 : 00e8;
    34 : 0000;
    35 : 00e8;
    36   : 0000;
    37 : 00e8;
    38 : 0000;
    39 : 00e8;
    40   : 0000;
    41 : 00e8;
    42 : 0000;
    43 : 00e8;
    44   : 0000;
    45 : 00e8;
    46 : 0000;
    47 : 00e8;
    48   : 0000;
    49 : 00e8;
    50 : 0000;
    51 : 00e8;
    52   : 0000;
    53 : 00e8;
    54 : 0000;
    55 : 00e8;
    56   : 0000;
    57 : 00e8;
    58 : 0000;
    59 : 00e8;
    60   : 0000;
    61 : 00e8;
    62 : 0000;
    63 : 00e8;
    64   : 0000;
    65 : 00e8;
    66 : 0000;
    67 : 00e8;
    68   : 0000;
    69 : 00e8;
    70 : 0000;
    71 : 00e8;
    72   : 0000;
    73 : 00e8;
    74 : 0000;
    75 : 00e8;
    76   : 0000;
    77 : 00e8;
    78 : 0000;
    79 : 00e8;
    80   : 0000;
    81 : 00e8;
    82 : 0000;
    83 : 00e8;
    84   : 0000;
    85 : 00e8;
    86 : 0000;
    87 : 00e8;
    88   : 0000;
    89 : 00e8;
    90 : 0000;
    91 : 00e8;
    92   : 0000;
    93 : 00e8;
    94 : 0000;
    95 : 00e8;
    96   : 0000;
    97 : 00e8;
    98 : 0000;
    99 : 00e8;
    100   : 0000;
    101 : 00e8;
    102 : 0000;
    103 : 00e8;
    104   : 0000;
    105 : 00e8;
    106 : 0000;
    107 : 00e8;
    108   : 0000;
    109 : 00e8;
    110 : 0000;
    111 : 00e8;
    112   : 0000;
    113 : 00e8;
    114 : 0000;
    115 : 00e8;
    116   : 0000;
    117 : 00e8;
    118 : 0000;
    119 : 00e8;
    120   : 0000;
    121 : 00e8;
    122 : 0000;
    123 : 00e8;
    124   : 0000;
    125 : 00e8;
    126 : 0000;
    127 : 00e8;
    128   : 0000;
    129 : 00e8;
    130 : 0000;
    131 : 00e8;
    132   : 0000;
    133 : 00e8;
    134 : 0000;
    135 : 00e8;
    136   : 0000;
    137 : 00e8;
    138 : 0000;
    139 : 00e8;
    140   : 0000;
    141 : 00e8;
    142 : 0000;
    143 : 00e8;
    144   : 0000;
    145 : 00e8;
    146 : 0000;
    147 : 00e8;
    148   : 0000;
    149 : 00e8;
    150 : 0000;
    151 : 00e8;
    152   : 0000;
    153 : 00e8;
    154 : 0000;
    155 : 00e8;
    156   : 0000;
    157 : 00e8;
    158 : 0000;
    159 : 00e8;
    160   : 0000;
    161 : 00e8;
    162 : 0000;
    163 : 00e8;
    164   : 0000;
    165 : 00e8;
    166 : 0000;
    167 : 00e8;
    168   : 0000;
    169 : 00e8;
    170 : 0000;
    171 : 00e8;
    172   : 0000;
    173 : 00e8;
    174 : 0000;
    175 : 00e8;
    176   : 0000;
    177 : 00e8;
    178 : 0000;
    179 : 00e8;
    180   : 0000;
    181 : 00e8;
    182 : 0000;
    183 : 00e8;
    184   : 0000;
    185 : 00e8;
    186 : 0000;
    187 : 00e8;
    188   : 0000;
    189 : 00e8;
    190 : 0000;
    191 : 00e8;
    192   : 0000;
    193 : 00e8;
    194 : 0000;
    195 : 00e8;
    196   : 0000;
    197 : 00e8;
    198 : 0000;
    199 : 00e8;
    200   : 0000;
    201 : 00e8;
    202 : 0000;
    203 : 00e8;
    204   : 0000;
    205 : 00e8;
    206 : 0000;
    207 : 00e8;
    208   : 0000;
    209 : 00e8;
    210 : 0000;
    211 : 00e8;
    212   : 0000;
    213 : 00e8;
    214 : 0000;
    215 : 00e8;
    216   : 0000;
    217 : 00e8;
    218 : 0000;
    219 : 00e8;
    220   : 0000;
    221 : 00e8;
    222 : 0000;
    223 : 00e8;
    224   : 0000;
    225 : 00e8;
    226 : 0000;
    227 : 00e8;
    228   : 0000;
    229 : 00e8;
    230 : 0000;
    231 : 00e8;
    232   : 0000;
    233 : 00e8;
    234 : 0000;
    235 : 00e8;
    236   : 0000;
    237 : 00e8;
    238 : 0000;
    239 : 00e8;
    240   : 0000;
    241 : 00e8;
    242 : 0000;
    243 : 00e8;
    244   : 0000;
    245 : 00e8;
    246 : 0000;
    247 : 00e8;
    248   : 0000;
    249 : 00e8;
    250 : 0000;
    251 : 00e8;
    252   : 0000;
    253 : 00e8;
    254 : 0000;
    255 : 00e8;
END;
