WIDTH=16;
DEPTH=256;
ADDRESS_RADIX=UNS;
DATA_RADIX=HEX;
CONTENT BEGIN
    0   : 0000;
    1 : 00d8;
    2 : 0000;
    3 : 00d8;
    4   : 0000;
    5 : 00d8;
    6 : 0000;
    7 : 00d8;
    8   : 0000;
    9 : 00d8;
    10 : 0000;
    11 : 00d8;
    12   : 0000;
    13 : 00d8;
    14 : 0000;
    15 : 00d8;
    16   : 0000;
    17 : 00d8;
    18 : 0000;
    19 : 00d8;
    20   : 0000;
    21 : 00d8;
    22 : 0000;
    23 : 00d8;
    24   : 0000;
    25 : 00d8;
    26 : 0000;
    27 : 00d8;
    28   : 0000;
    29 : 00d8;
    30 : 0000;
    31 : 00d8;
    32   : 0000;
    33 : 00d8;
    34 : 0000;
    35 : 00d8;
    36   : 0000;
    37 : 00d8;
    38 : 0000;
    39 : 00d8;
    40   : 0000;
    41 : 00d8;
    42 : 0000;
    43 : 00d8;
    44   : 0000;
    45 : 00d8;
    46 : 0000;
    47 : 00d8;
    48   : 0000;
    49 : 00d8;
    50 : 0000;
    51 : 00d8;
    52   : 0000;
    53 : 00d8;
    54 : 0000;
    55 : 00d8;
    56   : 0000;
    57 : 00d8;
    58 : 0000;
    59 : 00d8;
    60   : 0000;
    61 : 00d8;
    62 : 0000;
    63 : 00d8;
    64   : 0000;
    65 : 00d8;
    66 : 0000;
    67 : 00d8;
    68   : 0000;
    69 : 00d8;
    70 : 0000;
    71 : 00d8;
    72   : 0000;
    73 : 00d8;
    74 : 0000;
    75 : 00d8;
    76   : 0000;
    77 : 00d8;
    78 : 0000;
    79 : 00d8;
    80   : 0000;
    81 : 00d8;
    82 : 0000;
    83 : 00d8;
    84   : 0000;
    85 : 00d8;
    86 : 0000;
    87 : 00d8;
    88   : 0000;
    89 : 00d8;
    90 : 0000;
    91 : 00d8;
    92   : 0000;
    93 : 00d8;
    94 : 0000;
    95 : 00d8;
    96   : 0000;
    97 : 00d8;
    98 : 0000;
    99 : 00d8;
    100   : 0000;
    101 : 00d8;
    102 : 0000;
    103 : 00d8;
    104   : 0000;
    105 : 00d8;
    106 : 0000;
    107 : 00d8;
    108   : 0000;
    109 : 00d8;
    110 : 0000;
    111 : 00d8;
    112   : 0000;
    113 : 00d8;
    114 : 0000;
    115 : 00d8;
    116   : 0000;
    117 : 00d8;
    118 : 0000;
    119 : 00d8;
    120   : 0000;
    121 : 00d8;
    122 : 0000;
    123 : 00d8;
    124   : 0000;
    125 : 00d8;
    126 : 0000;
    127 : 00d8;
    128   : 0000;
    129 : 00d8;
    130 : 0000;
    131 : 00d8;
    132   : 0000;
    133 : 00d8;
    134 : 0000;
    135 : 00d8;
    136   : 0000;
    137 : 00d8;
    138 : 0000;
    139 : 00d8;
    140   : 0000;
    141 : 00d8;
    142 : 0000;
    143 : 00d8;
    144   : 0000;
    145 : 00d8;
    146 : 0000;
    147 : 00d8;
    148   : 0000;
    149 : 00d8;
    150 : 0000;
    151 : 00d8;
    152   : 0000;
    153 : 00d8;
    154 : 0000;
    155 : 00d8;
    156   : 0000;
    157 : 00d8;
    158 : 0000;
    159 : 00d8;
    160   : 0000;
    161 : 00d8;
    162 : 0000;
    163 : 00d8;
    164   : 0000;
    165 : 00d8;
    166 : 0000;
    167 : 00d8;
    168   : 0000;
    169 : 00d8;
    170 : 0000;
    171 : 00d8;
    172   : 0000;
    173 : 00d8;
    174 : 0000;
    175 : 00d8;
    176   : 0000;
    177 : 00d8;
    178 : 0000;
    179 : 00d8;
    180   : 0000;
    181 : 00d8;
    182 : 0000;
    183 : 00d8;
    184   : 0000;
    185 : 00d8;
    186 : 0000;
    187 : 00d8;
    188   : 0000;
    189 : 00d8;
    190 : 0000;
    191 : 00d8;
    192   : 0000;
    193 : 00d8;
    194 : 0000;
    195 : 00d8;
    196   : 0000;
    197 : 00d8;
    198 : 0000;
    199 : 00d8;
    200   : 0000;
    201 : 00d8;
    202 : 0000;
    203 : 00d8;
    204   : 0000;
    205 : 00d8;
    206 : 0000;
    207 : 00d8;
    208   : 0000;
    209 : 00d8;
    210 : 0000;
    211 : 00d8;
    212   : 0000;
    213 : 00d8;
    214 : 0000;
    215 : 00d8;
    216   : 0000;
    217 : 00d8;
    218 : 0000;
    219 : 00d8;
    220   : 0000;
    221 : 00d8;
    222 : 0000;
    223 : 00d8;
    224   : 0000;
    225 : 00d8;
    226 : 0000;
    227 : 00d8;
    228   : 0000;
    229 : 00d8;
    230 : 0000;
    231 : 00d8;
    232   : 0000;
    233 : 00d8;
    234 : 0000;
    235 : 00d8;
    236   : 0000;
    237 : 00d8;
    238 : 0000;
    239 : 00d8;
    240   : 0000;
    241 : 00d8;
    242 : 0000;
    243 : 00d8;
    244   : 0000;
    245 : 00d8;
    246 : 0000;
    247 : 00d8;
    248   : 0000;
    249 : 00d8;
    250 : 0000;
    251 : 00d8;
    252   : 0000;
    253 : 00d8;
    254 : 0000;
    255 : 00d8;
END;
