WIDTH=16;
DEPTH=256;
ADDRESS_RADIX=UNS;
DATA_RADIX=HEX;
CONTENT BEGIN
    0   : 0000;
    1 : 009c;
    2 : 0000;
    3 : 009c;
    4   : 0000;
    5 : 009c;
    6 : 0000;
    7 : 009c;
    8   : 0000;
    9 : 009c;
    10 : 0000;
    11 : 009c;
    12   : 0000;
    13 : 009c;
    14 : 0000;
    15 : 009c;
    16   : 0000;
    17 : 009c;
    18 : 0000;
    19 : 009c;
    20   : 0000;
    21 : 009c;
    22 : 0000;
    23 : 009c;
    24   : 0000;
    25 : 009c;
    26 : 0000;
    27 : 009c;
    28   : 0000;
    29 : 009c;
    30 : 0000;
    31 : 009c;
    32   : 0000;
    33 : 009c;
    34 : 0000;
    35 : 009c;
    36   : 0000;
    37 : 009c;
    38 : 0000;
    39 : 009c;
    40   : 0000;
    41 : 009c;
    42 : 0000;
    43 : 009c;
    44   : 0000;
    45 : 009c;
    46 : 0000;
    47 : 009c;
    48   : 0000;
    49 : 009c;
    50 : 0000;
    51 : 009c;
    52   : 0000;
    53 : 009c;
    54 : 0000;
    55 : 009c;
    56   : 0000;
    57 : 009c;
    58 : 0000;
    59 : 009c;
    60   : 0000;
    61 : 009c;
    62 : 0000;
    63 : 009c;
    64   : 0000;
    65 : 009c;
    66 : 0000;
    67 : 009c;
    68   : 0000;
    69 : 009c;
    70 : 0000;
    71 : 009c;
    72   : 0000;
    73 : 009c;
    74 : 0000;
    75 : 009c;
    76   : 0000;
    77 : 009c;
    78 : 0000;
    79 : 009c;
    80   : 0000;
    81 : 009c;
    82 : 0000;
    83 : 009c;
    84   : 0000;
    85 : 009c;
    86 : 0000;
    87 : 009c;
    88   : 0000;
    89 : 009c;
    90 : 0000;
    91 : 009c;
    92   : 0000;
    93 : 009c;
    94 : 0000;
    95 : 009c;
    96   : 0000;
    97 : 009c;
    98 : 0000;
    99 : 009c;
    100   : 0000;
    101 : 009c;
    102 : 0000;
    103 : 009c;
    104   : 0000;
    105 : 009c;
    106 : 0000;
    107 : 009c;
    108   : 0000;
    109 : 009c;
    110 : 0000;
    111 : 009c;
    112   : 0000;
    113 : 009c;
    114 : 0000;
    115 : 009c;
    116   : 0000;
    117 : 009c;
    118 : 0000;
    119 : 009c;
    120   : 0000;
    121 : 009c;
    122 : 0000;
    123 : 009c;
    124   : 0000;
    125 : 009c;
    126 : 0000;
    127 : 009c;
    128   : 0000;
    129 : 009c;
    130 : 0000;
    131 : 009c;
    132   : 0000;
    133 : 009c;
    134 : 0000;
    135 : 009c;
    136   : 0000;
    137 : 009c;
    138 : 0000;
    139 : 009c;
    140   : 0000;
    141 : 009c;
    142 : 0000;
    143 : 009c;
    144   : 0000;
    145 : 009c;
    146 : 0000;
    147 : 009c;
    148   : 0000;
    149 : 009c;
    150 : 0000;
    151 : 009c;
    152   : 0000;
    153 : 009c;
    154 : 0000;
    155 : 009c;
    156   : 0000;
    157 : 009c;
    158 : 0000;
    159 : 009c;
    160   : 0000;
    161 : 009c;
    162 : 0000;
    163 : 009c;
    164   : 0000;
    165 : 009c;
    166 : 0000;
    167 : 009c;
    168   : 0000;
    169 : 009c;
    170 : 0000;
    171 : 009c;
    172   : 0000;
    173 : 009c;
    174 : 0000;
    175 : 009c;
    176   : 0000;
    177 : 009c;
    178 : 0000;
    179 : 009c;
    180   : 0000;
    181 : 009c;
    182 : 0000;
    183 : 009c;
    184   : 0000;
    185 : 009c;
    186 : 0000;
    187 : 009c;
    188   : 0000;
    189 : 009c;
    190 : 0000;
    191 : 009c;
    192   : 0000;
    193 : 009c;
    194 : 0000;
    195 : 009c;
    196   : 0000;
    197 : 009c;
    198 : 0000;
    199 : 009c;
    200   : 0000;
    201 : 009c;
    202 : 0000;
    203 : 009c;
    204   : 0000;
    205 : 009c;
    206 : 0000;
    207 : 009c;
    208   : 0000;
    209 : 009c;
    210 : 0000;
    211 : 009c;
    212   : 0000;
    213 : 009c;
    214 : 0000;
    215 : 009c;
    216   : 0000;
    217 : 009c;
    218 : 0000;
    219 : 009c;
    220   : 0000;
    221 : 009c;
    222 : 0000;
    223 : 009c;
    224   : 0000;
    225 : 009c;
    226 : 0000;
    227 : 009c;
    228   : 0000;
    229 : 009c;
    230 : 0000;
    231 : 009c;
    232   : 0000;
    233 : 009c;
    234 : 0000;
    235 : 009c;
    236   : 0000;
    237 : 009c;
    238 : 0000;
    239 : 009c;
    240   : 0000;
    241 : 009c;
    242 : 0000;
    243 : 009c;
    244   : 0000;
    245 : 009c;
    246 : 0000;
    247 : 009c;
    248   : 0000;
    249 : 009c;
    250 : 0000;
    251 : 009c;
    252   : 0000;
    253 : 009c;
    254 : 0000;
    255 : 009c;
END;
