WIDTH=16;
DEPTH=256;
ADDRESS_RADIX=UNS;
DATA_RADIX=HEX;
CONTENT BEGIN
    0   : 0000;
    1 : 00b2;
    2 : 0000;
    3 : 00b2;
    4   : 0000;
    5 : 00b2;
    6 : 0000;
    7 : 00b2;
    8   : 0000;
    9 : 00b2;
    10 : 0000;
    11 : 00b2;
    12   : 0000;
    13 : 00b2;
    14 : 0000;
    15 : 00b2;
    16   : 0000;
    17 : 00b2;
    18 : 0000;
    19 : 00b2;
    20   : 0000;
    21 : 00b2;
    22 : 0000;
    23 : 00b2;
    24   : 0000;
    25 : 00b2;
    26 : 0000;
    27 : 00b2;
    28   : 0000;
    29 : 00b2;
    30 : 0000;
    31 : 00b2;
    32   : 0000;
    33 : 00b2;
    34 : 0000;
    35 : 00b2;
    36   : 0000;
    37 : 00b2;
    38 : 0000;
    39 : 00b2;
    40   : 0000;
    41 : 00b2;
    42 : 0000;
    43 : 00b2;
    44   : 0000;
    45 : 00b2;
    46 : 0000;
    47 : 00b2;
    48   : 0000;
    49 : 00b2;
    50 : 0000;
    51 : 00b2;
    52   : 0000;
    53 : 00b2;
    54 : 0000;
    55 : 00b2;
    56   : 0000;
    57 : 00b2;
    58 : 0000;
    59 : 00b2;
    60   : 0000;
    61 : 00b2;
    62 : 0000;
    63 : 00b2;
    64   : 0000;
    65 : 00b2;
    66 : 0000;
    67 : 00b2;
    68   : 0000;
    69 : 00b2;
    70 : 0000;
    71 : 00b2;
    72   : 0000;
    73 : 00b2;
    74 : 0000;
    75 : 00b2;
    76   : 0000;
    77 : 00b2;
    78 : 0000;
    79 : 00b2;
    80   : 0000;
    81 : 00b2;
    82 : 0000;
    83 : 00b2;
    84   : 0000;
    85 : 00b2;
    86 : 0000;
    87 : 00b2;
    88   : 0000;
    89 : 00b2;
    90 : 0000;
    91 : 00b2;
    92   : 0000;
    93 : 00b2;
    94 : 0000;
    95 : 00b2;
    96   : 0000;
    97 : 00b2;
    98 : 0000;
    99 : 00b2;
    100   : 0000;
    101 : 00b2;
    102 : 0000;
    103 : 00b2;
    104   : 0000;
    105 : 00b2;
    106 : 0000;
    107 : 00b2;
    108   : 0000;
    109 : 00b2;
    110 : 0000;
    111 : 00b2;
    112   : 0000;
    113 : 00b2;
    114 : 0000;
    115 : 00b2;
    116   : 0000;
    117 : 00b2;
    118 : 0000;
    119 : 00b2;
    120   : 0000;
    121 : 00b2;
    122 : 0000;
    123 : 00b2;
    124   : 0000;
    125 : 00b2;
    126 : 0000;
    127 : 00b2;
    128   : 0000;
    129 : 00b2;
    130 : 0000;
    131 : 00b2;
    132   : 0000;
    133 : 00b2;
    134 : 0000;
    135 : 00b2;
    136   : 0000;
    137 : 00b2;
    138 : 0000;
    139 : 00b2;
    140   : 0000;
    141 : 00b2;
    142 : 0000;
    143 : 00b2;
    144   : 0000;
    145 : 00b2;
    146 : 0000;
    147 : 00b2;
    148   : 0000;
    149 : 00b2;
    150 : 0000;
    151 : 00b2;
    152   : 0000;
    153 : 00b2;
    154 : 0000;
    155 : 00b2;
    156   : 0000;
    157 : 00b2;
    158 : 0000;
    159 : 00b2;
    160   : 0000;
    161 : 00b2;
    162 : 0000;
    163 : 00b2;
    164   : 0000;
    165 : 00b2;
    166 : 0000;
    167 : 00b2;
    168   : 0000;
    169 : 00b2;
    170 : 0000;
    171 : 00b2;
    172   : 0000;
    173 : 00b2;
    174 : 0000;
    175 : 00b2;
    176   : 0000;
    177 : 00b2;
    178 : 0000;
    179 : 00b2;
    180   : 0000;
    181 : 00b2;
    182 : 0000;
    183 : 00b2;
    184   : 0000;
    185 : 00b2;
    186 : 0000;
    187 : 00b2;
    188   : 0000;
    189 : 00b2;
    190 : 0000;
    191 : 00b2;
    192   : 0000;
    193 : 00b2;
    194 : 0000;
    195 : 00b2;
    196   : 0000;
    197 : 00b2;
    198 : 0000;
    199 : 00b2;
    200   : 0000;
    201 : 00b2;
    202 : 0000;
    203 : 00b2;
    204   : 0000;
    205 : 00b2;
    206 : 0000;
    207 : 00b2;
    208   : 0000;
    209 : 00b2;
    210 : 0000;
    211 : 00b2;
    212   : 0000;
    213 : 00b2;
    214 : 0000;
    215 : 00b2;
    216   : 0000;
    217 : 00b2;
    218 : 0000;
    219 : 00b2;
    220   : 0000;
    221 : 00b2;
    222 : 0000;
    223 : 00b2;
    224   : 0000;
    225 : 00b2;
    226 : 0000;
    227 : 00b2;
    228   : 0000;
    229 : 00b2;
    230 : 0000;
    231 : 00b2;
    232   : 0000;
    233 : 00b2;
    234 : 0000;
    235 : 00b2;
    236   : 0000;
    237 : 00b2;
    238 : 0000;
    239 : 00b2;
    240   : 0000;
    241 : 00b2;
    242 : 0000;
    243 : 00b2;
    244   : 0000;
    245 : 00b2;
    246 : 0000;
    247 : 00b2;
    248   : 0000;
    249 : 00b2;
    250 : 0000;
    251 : 00b2;
    252   : 0000;
    253 : 00b2;
    254 : 0000;
    255 : 00b2;
END;
