WIDTH=16;
DEPTH=256;
ADDRESS_RADIX=UNS;
DATA_RADIX=HEX;
CONTENT BEGIN
    0   : 0000;
    1 : 00e2;
    2 : 0000;
    3 : 00e2;
    4   : 0000;
    5 : 00e2;
    6 : 0000;
    7 : 00e2;
    8   : 0000;
    9 : 00e2;
    10 : 0000;
    11 : 00e2;
    12   : 0000;
    13 : 00e2;
    14 : 0000;
    15 : 00e2;
    16   : 0000;
    17 : 00e2;
    18 : 0000;
    19 : 00e2;
    20   : 0000;
    21 : 00e2;
    22 : 0000;
    23 : 00e2;
    24   : 0000;
    25 : 00e2;
    26 : 0000;
    27 : 00e2;
    28   : 0000;
    29 : 00e2;
    30 : 0000;
    31 : 00e2;
    32   : 0000;
    33 : 00e2;
    34 : 0000;
    35 : 00e2;
    36   : 0000;
    37 : 00e2;
    38 : 0000;
    39 : 00e2;
    40   : 0000;
    41 : 00e2;
    42 : 0000;
    43 : 00e2;
    44   : 0000;
    45 : 00e2;
    46 : 0000;
    47 : 00e2;
    48   : 0000;
    49 : 00e2;
    50 : 0000;
    51 : 00e2;
    52   : 0000;
    53 : 00e2;
    54 : 0000;
    55 : 00e2;
    56   : 0000;
    57 : 00e2;
    58 : 0000;
    59 : 00e2;
    60   : 0000;
    61 : 00e2;
    62 : 0000;
    63 : 00e2;
    64   : 0000;
    65 : 00e2;
    66 : 0000;
    67 : 00e2;
    68   : 0000;
    69 : 00e2;
    70 : 0000;
    71 : 00e2;
    72   : 0000;
    73 : 00e2;
    74 : 0000;
    75 : 00e2;
    76   : 0000;
    77 : 00e2;
    78 : 0000;
    79 : 00e2;
    80   : 0000;
    81 : 00e2;
    82 : 0000;
    83 : 00e2;
    84   : 0000;
    85 : 00e2;
    86 : 0000;
    87 : 00e2;
    88   : 0000;
    89 : 00e2;
    90 : 0000;
    91 : 00e2;
    92   : 0000;
    93 : 00e2;
    94 : 0000;
    95 : 00e2;
    96   : 0000;
    97 : 00e2;
    98 : 0000;
    99 : 00e2;
    100   : 0000;
    101 : 00e2;
    102 : 0000;
    103 : 00e2;
    104   : 0000;
    105 : 00e2;
    106 : 0000;
    107 : 00e2;
    108   : 0000;
    109 : 00e2;
    110 : 0000;
    111 : 00e2;
    112   : 0000;
    113 : 00e2;
    114 : 0000;
    115 : 00e2;
    116   : 0000;
    117 : 00e2;
    118 : 0000;
    119 : 00e2;
    120   : 0000;
    121 : 00e2;
    122 : 0000;
    123 : 00e2;
    124   : 0000;
    125 : 00e2;
    126 : 0000;
    127 : 00e2;
    128   : 0000;
    129 : 00e2;
    130 : 0000;
    131 : 00e2;
    132   : 0000;
    133 : 00e2;
    134 : 0000;
    135 : 00e2;
    136   : 0000;
    137 : 00e2;
    138 : 0000;
    139 : 00e2;
    140   : 0000;
    141 : 00e2;
    142 : 0000;
    143 : 00e2;
    144   : 0000;
    145 : 00e2;
    146 : 0000;
    147 : 00e2;
    148   : 0000;
    149 : 00e2;
    150 : 0000;
    151 : 00e2;
    152   : 0000;
    153 : 00e2;
    154 : 0000;
    155 : 00e2;
    156   : 0000;
    157 : 00e2;
    158 : 0000;
    159 : 00e2;
    160   : 0000;
    161 : 00e2;
    162 : 0000;
    163 : 00e2;
    164   : 0000;
    165 : 00e2;
    166 : 0000;
    167 : 00e2;
    168   : 0000;
    169 : 00e2;
    170 : 0000;
    171 : 00e2;
    172   : 0000;
    173 : 00e2;
    174 : 0000;
    175 : 00e2;
    176   : 0000;
    177 : 00e2;
    178 : 0000;
    179 : 00e2;
    180   : 0000;
    181 : 00e2;
    182 : 0000;
    183 : 00e2;
    184   : 0000;
    185 : 00e2;
    186 : 0000;
    187 : 00e2;
    188   : 0000;
    189 : 00e2;
    190 : 0000;
    191 : 00e2;
    192   : 0000;
    193 : 00e2;
    194 : 0000;
    195 : 00e2;
    196   : 0000;
    197 : 00e2;
    198 : 0000;
    199 : 00e2;
    200   : 0000;
    201 : 00e2;
    202 : 0000;
    203 : 00e2;
    204   : 0000;
    205 : 00e2;
    206 : 0000;
    207 : 00e2;
    208   : 0000;
    209 : 00e2;
    210 : 0000;
    211 : 00e2;
    212   : 0000;
    213 : 00e2;
    214 : 0000;
    215 : 00e2;
    216   : 0000;
    217 : 00e2;
    218 : 0000;
    219 : 00e2;
    220   : 0000;
    221 : 00e2;
    222 : 0000;
    223 : 00e2;
    224   : 0000;
    225 : 00e2;
    226 : 0000;
    227 : 00e2;
    228   : 0000;
    229 : 00e2;
    230 : 0000;
    231 : 00e2;
    232   : 0000;
    233 : 00e2;
    234 : 0000;
    235 : 00e2;
    236   : 0000;
    237 : 00e2;
    238 : 0000;
    239 : 00e2;
    240   : 0000;
    241 : 00e2;
    242 : 0000;
    243 : 00e2;
    244   : 0000;
    245 : 00e2;
    246 : 0000;
    247 : 00e2;
    248   : 0000;
    249 : 00e2;
    250 : 0000;
    251 : 00e2;
    252   : 0000;
    253 : 00e2;
    254 : 0000;
    255 : 00e2;
END;
