WIDTH=16;
DEPTH=256;
ADDRESS_RADIX=UNS;
DATA_RADIX=HEX;
CONTENT BEGIN
    0   : 0000;
    1 : 00ac;
    2 : 0000;
    3 : 00ac;
    4   : 0000;
    5 : 00ac;
    6 : 0000;
    7 : 00ac;
    8   : 0000;
    9 : 00ac;
    10 : 0000;
    11 : 00ac;
    12   : 0000;
    13 : 00ac;
    14 : 0000;
    15 : 00ac;
    16   : 0000;
    17 : 00ac;
    18 : 0000;
    19 : 00ac;
    20   : 0000;
    21 : 00ac;
    22 : 0000;
    23 : 00ac;
    24   : 0000;
    25 : 00ac;
    26 : 0000;
    27 : 00ac;
    28   : 0000;
    29 : 00ac;
    30 : 0000;
    31 : 00ac;
    32   : 0000;
    33 : 00ac;
    34 : 0000;
    35 : 00ac;
    36   : 0000;
    37 : 00ac;
    38 : 0000;
    39 : 00ac;
    40   : 0000;
    41 : 00ac;
    42 : 0000;
    43 : 00ac;
    44   : 0000;
    45 : 00ac;
    46 : 0000;
    47 : 00ac;
    48   : 0000;
    49 : 00ac;
    50 : 0000;
    51 : 00ac;
    52   : 0000;
    53 : 00ac;
    54 : 0000;
    55 : 00ac;
    56   : 0000;
    57 : 00ac;
    58 : 0000;
    59 : 00ac;
    60   : 0000;
    61 : 00ac;
    62 : 0000;
    63 : 00ac;
    64   : 0000;
    65 : 00ac;
    66 : 0000;
    67 : 00ac;
    68   : 0000;
    69 : 00ac;
    70 : 0000;
    71 : 00ac;
    72   : 0000;
    73 : 00ac;
    74 : 0000;
    75 : 00ac;
    76   : 0000;
    77 : 00ac;
    78 : 0000;
    79 : 00ac;
    80   : 0000;
    81 : 00ac;
    82 : 0000;
    83 : 00ac;
    84   : 0000;
    85 : 00ac;
    86 : 0000;
    87 : 00ac;
    88   : 0000;
    89 : 00ac;
    90 : 0000;
    91 : 00ac;
    92   : 0000;
    93 : 00ac;
    94 : 0000;
    95 : 00ac;
    96   : 0000;
    97 : 00ac;
    98 : 0000;
    99 : 00ac;
    100   : 0000;
    101 : 00ac;
    102 : 0000;
    103 : 00ac;
    104   : 0000;
    105 : 00ac;
    106 : 0000;
    107 : 00ac;
    108   : 0000;
    109 : 00ac;
    110 : 0000;
    111 : 00ac;
    112   : 0000;
    113 : 00ac;
    114 : 0000;
    115 : 00ac;
    116   : 0000;
    117 : 00ac;
    118 : 0000;
    119 : 00ac;
    120   : 0000;
    121 : 00ac;
    122 : 0000;
    123 : 00ac;
    124   : 0000;
    125 : 00ac;
    126 : 0000;
    127 : 00ac;
    128   : 0000;
    129 : 00ac;
    130 : 0000;
    131 : 00ac;
    132   : 0000;
    133 : 00ac;
    134 : 0000;
    135 : 00ac;
    136   : 0000;
    137 : 00ac;
    138 : 0000;
    139 : 00ac;
    140   : 0000;
    141 : 00ac;
    142 : 0000;
    143 : 00ac;
    144   : 0000;
    145 : 00ac;
    146 : 0000;
    147 : 00ac;
    148   : 0000;
    149 : 00ac;
    150 : 0000;
    151 : 00ac;
    152   : 0000;
    153 : 00ac;
    154 : 0000;
    155 : 00ac;
    156   : 0000;
    157 : 00ac;
    158 : 0000;
    159 : 00ac;
    160   : 0000;
    161 : 00ac;
    162 : 0000;
    163 : 00ac;
    164   : 0000;
    165 : 00ac;
    166 : 0000;
    167 : 00ac;
    168   : 0000;
    169 : 00ac;
    170 : 0000;
    171 : 00ac;
    172   : 0000;
    173 : 00ac;
    174 : 0000;
    175 : 00ac;
    176   : 0000;
    177 : 00ac;
    178 : 0000;
    179 : 00ac;
    180   : 0000;
    181 : 00ac;
    182 : 0000;
    183 : 00ac;
    184   : 0000;
    185 : 00ac;
    186 : 0000;
    187 : 00ac;
    188   : 0000;
    189 : 00ac;
    190 : 0000;
    191 : 00ac;
    192   : 0000;
    193 : 00ac;
    194 : 0000;
    195 : 00ac;
    196   : 0000;
    197 : 00ac;
    198 : 0000;
    199 : 00ac;
    200   : 0000;
    201 : 00ac;
    202 : 0000;
    203 : 00ac;
    204   : 0000;
    205 : 00ac;
    206 : 0000;
    207 : 00ac;
    208   : 0000;
    209 : 00ac;
    210 : 0000;
    211 : 00ac;
    212   : 0000;
    213 : 00ac;
    214 : 0000;
    215 : 00ac;
    216   : 0000;
    217 : 00ac;
    218 : 0000;
    219 : 00ac;
    220   : 0000;
    221 : 00ac;
    222 : 0000;
    223 : 00ac;
    224   : 0000;
    225 : 00ac;
    226 : 0000;
    227 : 00ac;
    228   : 0000;
    229 : 00ac;
    230 : 0000;
    231 : 00ac;
    232   : 0000;
    233 : 00ac;
    234 : 0000;
    235 : 00ac;
    236   : 0000;
    237 : 00ac;
    238 : 0000;
    239 : 00ac;
    240   : 0000;
    241 : 00ac;
    242 : 0000;
    243 : 00ac;
    244   : 0000;
    245 : 00ac;
    246 : 0000;
    247 : 00ac;
    248   : 0000;
    249 : 00ac;
    250 : 0000;
    251 : 00ac;
    252   : 0000;
    253 : 00ac;
    254 : 0000;
    255 : 00ac;
END;
