WIDTH=16;
DEPTH=256;
ADDRESS_RADIX=UNS;
DATA_RADIX=HEX;
CONTENT BEGIN
    0   : 0000;
    1 : 00d0;
    2 : 0000;
    3 : 00d0;
    4   : 0000;
    5 : 00d0;
    6 : 0000;
    7 : 00d0;
    8   : 0000;
    9 : 00d0;
    10 : 0000;
    11 : 00d0;
    12   : 0000;
    13 : 00d0;
    14 : 0000;
    15 : 00d0;
    16   : 0000;
    17 : 00d0;
    18 : 0000;
    19 : 00d0;
    20   : 0000;
    21 : 00d0;
    22 : 0000;
    23 : 00d0;
    24   : 0000;
    25 : 00d0;
    26 : 0000;
    27 : 00d0;
    28   : 0000;
    29 : 00d0;
    30 : 0000;
    31 : 00d0;
    32   : 0000;
    33 : 00d0;
    34 : 0000;
    35 : 00d0;
    36   : 0000;
    37 : 00d0;
    38 : 0000;
    39 : 00d0;
    40   : 0000;
    41 : 00d0;
    42 : 0000;
    43 : 00d0;
    44   : 0000;
    45 : 00d0;
    46 : 0000;
    47 : 00d0;
    48   : 0000;
    49 : 00d0;
    50 : 0000;
    51 : 00d0;
    52   : 0000;
    53 : 00d0;
    54 : 0000;
    55 : 00d0;
    56   : 0000;
    57 : 00d0;
    58 : 0000;
    59 : 00d0;
    60   : 0000;
    61 : 00d0;
    62 : 0000;
    63 : 00d0;
    64   : 0000;
    65 : 00d0;
    66 : 0000;
    67 : 00d0;
    68   : 0000;
    69 : 00d0;
    70 : 0000;
    71 : 00d0;
    72   : 0000;
    73 : 00d0;
    74 : 0000;
    75 : 00d0;
    76   : 0000;
    77 : 00d0;
    78 : 0000;
    79 : 00d0;
    80   : 0000;
    81 : 00d0;
    82 : 0000;
    83 : 00d0;
    84   : 0000;
    85 : 00d0;
    86 : 0000;
    87 : 00d0;
    88   : 0000;
    89 : 00d0;
    90 : 0000;
    91 : 00d0;
    92   : 0000;
    93 : 00d0;
    94 : 0000;
    95 : 00d0;
    96   : 0000;
    97 : 00d0;
    98 : 0000;
    99 : 00d0;
    100   : 0000;
    101 : 00d0;
    102 : 0000;
    103 : 00d0;
    104   : 0000;
    105 : 00d0;
    106 : 0000;
    107 : 00d0;
    108   : 0000;
    109 : 00d0;
    110 : 0000;
    111 : 00d0;
    112   : 0000;
    113 : 00d0;
    114 : 0000;
    115 : 00d0;
    116   : 0000;
    117 : 00d0;
    118 : 0000;
    119 : 00d0;
    120   : 0000;
    121 : 00d0;
    122 : 0000;
    123 : 00d0;
    124   : 0000;
    125 : 00d0;
    126 : 0000;
    127 : 00d0;
    128   : 0000;
    129 : 00d0;
    130 : 0000;
    131 : 00d0;
    132   : 0000;
    133 : 00d0;
    134 : 0000;
    135 : 00d0;
    136   : 0000;
    137 : 00d0;
    138 : 0000;
    139 : 00d0;
    140   : 0000;
    141 : 00d0;
    142 : 0000;
    143 : 00d0;
    144   : 0000;
    145 : 00d0;
    146 : 0000;
    147 : 00d0;
    148   : 0000;
    149 : 00d0;
    150 : 0000;
    151 : 00d0;
    152   : 0000;
    153 : 00d0;
    154 : 0000;
    155 : 00d0;
    156   : 0000;
    157 : 00d0;
    158 : 0000;
    159 : 00d0;
    160   : 0000;
    161 : 00d0;
    162 : 0000;
    163 : 00d0;
    164   : 0000;
    165 : 00d0;
    166 : 0000;
    167 : 00d0;
    168   : 0000;
    169 : 00d0;
    170 : 0000;
    171 : 00d0;
    172   : 0000;
    173 : 00d0;
    174 : 0000;
    175 : 00d0;
    176   : 0000;
    177 : 00d0;
    178 : 0000;
    179 : 00d0;
    180   : 0000;
    181 : 00d0;
    182 : 0000;
    183 : 00d0;
    184   : 0000;
    185 : 00d0;
    186 : 0000;
    187 : 00d0;
    188   : 0000;
    189 : 00d0;
    190 : 0000;
    191 : 00d0;
    192   : 0000;
    193 : 00d0;
    194 : 0000;
    195 : 00d0;
    196   : 0000;
    197 : 00d0;
    198 : 0000;
    199 : 00d0;
    200   : 0000;
    201 : 00d0;
    202 : 0000;
    203 : 00d0;
    204   : 0000;
    205 : 00d0;
    206 : 0000;
    207 : 00d0;
    208   : 0000;
    209 : 00d0;
    210 : 0000;
    211 : 00d0;
    212   : 0000;
    213 : 00d0;
    214 : 0000;
    215 : 00d0;
    216   : 0000;
    217 : 00d0;
    218 : 0000;
    219 : 00d0;
    220   : 0000;
    221 : 00d0;
    222 : 0000;
    223 : 00d0;
    224   : 0000;
    225 : 00d0;
    226 : 0000;
    227 : 00d0;
    228   : 0000;
    229 : 00d0;
    230 : 0000;
    231 : 00d0;
    232   : 0000;
    233 : 00d0;
    234 : 0000;
    235 : 00d0;
    236   : 0000;
    237 : 00d0;
    238 : 0000;
    239 : 00d0;
    240   : 0000;
    241 : 00d0;
    242 : 0000;
    243 : 00d0;
    244   : 0000;
    245 : 00d0;
    246 : 0000;
    247 : 00d0;
    248   : 0000;
    249 : 00d0;
    250 : 0000;
    251 : 00d0;
    252   : 0000;
    253 : 00d0;
    254 : 0000;
    255 : 00d0;
END;
