WIDTH=16;
DEPTH=256;
ADDRESS_RADIX=UNS;
DATA_RADIX=HEX;
CONTENT BEGIN
    0   : 0000;
    1 : 0096;
    2 : 0000;
    3 : 0096;
    4   : 0000;
    5 : 0096;
    6 : 0000;
    7 : 0096;
    8   : 0000;
    9 : 0096;
    10 : 0000;
    11 : 0096;
    12   : 0000;
    13 : 0096;
    14 : 0000;
    15 : 0096;
    16   : 0000;
    17 : 0096;
    18 : 0000;
    19 : 0096;
    20   : 0000;
    21 : 0096;
    22 : 0000;
    23 : 0096;
    24   : 0000;
    25 : 0096;
    26 : 0000;
    27 : 0096;
    28   : 0000;
    29 : 0096;
    30 : 0000;
    31 : 0096;
    32   : 0000;
    33 : 0096;
    34 : 0000;
    35 : 0096;
    36   : 0000;
    37 : 0096;
    38 : 0000;
    39 : 0096;
    40   : 0000;
    41 : 0096;
    42 : 0000;
    43 : 0096;
    44   : 0000;
    45 : 0096;
    46 : 0000;
    47 : 0096;
    48   : 0000;
    49 : 0096;
    50 : 0000;
    51 : 0096;
    52   : 0000;
    53 : 0096;
    54 : 0000;
    55 : 0096;
    56   : 0000;
    57 : 0096;
    58 : 0000;
    59 : 0096;
    60   : 0000;
    61 : 0096;
    62 : 0000;
    63 : 0096;
    64   : 0000;
    65 : 0096;
    66 : 0000;
    67 : 0096;
    68   : 0000;
    69 : 0096;
    70 : 0000;
    71 : 0096;
    72   : 0000;
    73 : 0096;
    74 : 0000;
    75 : 0096;
    76   : 0000;
    77 : 0096;
    78 : 0000;
    79 : 0096;
    80   : 0000;
    81 : 0096;
    82 : 0000;
    83 : 0096;
    84   : 0000;
    85 : 0096;
    86 : 0000;
    87 : 0096;
    88   : 0000;
    89 : 0096;
    90 : 0000;
    91 : 0096;
    92   : 0000;
    93 : 0096;
    94 : 0000;
    95 : 0096;
    96   : 0000;
    97 : 0096;
    98 : 0000;
    99 : 0096;
    100   : 0000;
    101 : 0096;
    102 : 0000;
    103 : 0096;
    104   : 0000;
    105 : 0096;
    106 : 0000;
    107 : 0096;
    108   : 0000;
    109 : 0096;
    110 : 0000;
    111 : 0096;
    112   : 0000;
    113 : 0096;
    114 : 0000;
    115 : 0096;
    116   : 0000;
    117 : 0096;
    118 : 0000;
    119 : 0096;
    120   : 0000;
    121 : 0096;
    122 : 0000;
    123 : 0096;
    124   : 0000;
    125 : 0096;
    126 : 0000;
    127 : 0096;
    128   : 0000;
    129 : 0096;
    130 : 0000;
    131 : 0096;
    132   : 0000;
    133 : 0096;
    134 : 0000;
    135 : 0096;
    136   : 0000;
    137 : 0096;
    138 : 0000;
    139 : 0096;
    140   : 0000;
    141 : 0096;
    142 : 0000;
    143 : 0096;
    144   : 0000;
    145 : 0096;
    146 : 0000;
    147 : 0096;
    148   : 0000;
    149 : 0096;
    150 : 0000;
    151 : 0096;
    152   : 0000;
    153 : 0096;
    154 : 0000;
    155 : 0096;
    156   : 0000;
    157 : 0096;
    158 : 0000;
    159 : 0096;
    160   : 0000;
    161 : 0096;
    162 : 0000;
    163 : 0096;
    164   : 0000;
    165 : 0096;
    166 : 0000;
    167 : 0096;
    168   : 0000;
    169 : 0096;
    170 : 0000;
    171 : 0096;
    172   : 0000;
    173 : 0096;
    174 : 0000;
    175 : 0096;
    176   : 0000;
    177 : 0096;
    178 : 0000;
    179 : 0096;
    180   : 0000;
    181 : 0096;
    182 : 0000;
    183 : 0096;
    184   : 0000;
    185 : 0096;
    186 : 0000;
    187 : 0096;
    188   : 0000;
    189 : 0096;
    190 : 0000;
    191 : 0096;
    192   : 0000;
    193 : 0096;
    194 : 0000;
    195 : 0096;
    196   : 0000;
    197 : 0096;
    198 : 0000;
    199 : 0096;
    200   : 0000;
    201 : 0096;
    202 : 0000;
    203 : 0096;
    204   : 0000;
    205 : 0096;
    206 : 0000;
    207 : 0096;
    208   : 0000;
    209 : 0096;
    210 : 0000;
    211 : 0096;
    212   : 0000;
    213 : 0096;
    214 : 0000;
    215 : 0096;
    216   : 0000;
    217 : 0096;
    218 : 0000;
    219 : 0096;
    220   : 0000;
    221 : 0096;
    222 : 0000;
    223 : 0096;
    224   : 0000;
    225 : 0096;
    226 : 0000;
    227 : 0096;
    228   : 0000;
    229 : 0096;
    230 : 0000;
    231 : 0096;
    232   : 0000;
    233 : 0096;
    234 : 0000;
    235 : 0096;
    236   : 0000;
    237 : 0096;
    238 : 0000;
    239 : 0096;
    240   : 0000;
    241 : 0096;
    242 : 0000;
    243 : 0096;
    244   : 0000;
    245 : 0096;
    246 : 0000;
    247 : 0096;
    248   : 0000;
    249 : 0096;
    250 : 0000;
    251 : 0096;
    252   : 0000;
    253 : 0096;
    254 : 0000;
    255 : 0096;
END;
